{
  "version": "1.0",
  "truncation": null,
  "padding": null,
  "added_tokens": [
    {
      "id": 0,
      "content": "<pad>",
      "single_word": false,
      "lstrip": false,
      "rstrip": false,
      "normalized": false,
      "special": true
    },
    {
      "id": 1,
      "content": "<sos>",
      "single_word": false,
      "lstrip": false,
      "rstrip": false,
      "normalized": false,
      "special": true
    },
    {
      "id": 2,
      "content": "<eos>",
      "single_word": false,
      "lstrip": false,
      "rstrip": false,
      "normalized": false,
      "special": true
    },
    {
      "id": 3,
      "content": "<unk>",
      "single_word": false,
      "lstrip": false,
      "rstrip": false,
      "normalized": false,
      "special": true
    }
  ],
  "normalizer": null,
  "pre_tokenizer": {
    "type": "Whitespace"
  },
  "post_processor": null,
  "decoder": null,
  "model": {
    "type": "BPE",
    "dropout": null,
    "unk_token": "<unk>",
    "continuing_subword_prefix": null,
    "end_of_word_suffix": null,
    "fuse_unk": false,
    "byte_fallback": false,
    "ignore_merges": false,
    "vocab": {
      "<pad>": 0,
      "<sos>": 1,
      "<eos>": 2,
      "<unk>": 3,
      "!": 4,
      "\"": 5,
      "#": 6,
      "$": 7,
      "%": 8,
      "&": 9,
      "'": 10,
      "(": 11,
      ")": 12,
      "*": 13,
      "+": 14,
      ",": 15,
      "-": 16,
      ".": 17,
      "/": 18,
      "0": 19,
      "1": 20,
      "2": 21,
      "3": 22,
      "4": 23,
      "5": 24,
      "6": 25,
      "7": 26,
      "8": 27,
      "9": 28,
      ":": 29,
      ";": 30,
      "<": 31,
      "=": 32,
      ">": 33,
      "?": 34,
      "@": 35,
      "A": 36,
      "B": 37,
      "C": 38,
      "D": 39,
      "E": 40,
      "F": 41,
      "G": 42,
      "H": 43,
      "I": 44,
      "J": 45,
      "K": 46,
      "L": 47,
      "M": 48,
      "N": 49,
      "O": 50,
      "P": 51,
      "Q": 52,
      "R": 53,
      "S": 54,
      "T": 55,
      "U": 56,
      "V": 57,
      "W": 58,
      "X": 59,
      "Y": 60,
      "Z": 61,
      "[": 62,
      "\\": 63,
      "]": 64,
      "^": 65,
      "_": 66,
      "`": 67,
      "a": 68,
      "b": 69,
      "c": 70,
      "d": 71,
      "e": 72,
      "f": 73,
      "g": 74,
      "h": 75,
      "i": 76,
      "j": 77,
      "k": 78,
      "l": 79,
      "m": 80,
      "n": 81,
      "o": 82,
      "p": 83,
      "q": 84,
      "r": 85,
      "s": 86,
      "t": 87,
      "u": 88,
      "v": 89,
      "w": 90,
      "x": 91,
      "y": 92,
      "z": 93,
      "{": 94,
      "|": 95,
      "}": 96,
      "~": 97,
      "©": 98,
      "«": 99,
      "®": 100,
      "°": 101,
      "±": 102,
      "²": 103,
      "³": 104,
      "µ": 105,
      "·": 106,
      "¸": 107,
      "º": 108,
      "»": 109,
      "¼": 110,
      "½": 111,
      "¾": 112,
      "É": 113,
      "Ì": 114,
      "Ô": 115,
      "Ö": 116,
      "×": 117,
      "Ø": 118,
      "Ü": 119,
      "ß": 120,
      "à": 121,
      "á": 122,
      "â": 123,
      "ä": 124,
      "å": 125,
      "ç": 126,
      "é": 127,
      "ê": 128,
      "ì": 129,
      "í": 130,
      "ñ": 131,
      "ó": 132,
      "ô": 133,
      "õ": 134,
      "ö": 135,
      "ú": 136,
      "ü": 137,
      "đ": 138,
      "ĩ": 139,
      "ư": 140,
      "ǝ": 141,
      "Α": 142,
      "Κ": 143,
      "Μ": 144,
      "δ": 145,
      "ε": 146,
      "θ": 147,
      "λ": 148,
      "μ": 149,
      "ρ": 150,
      "σ": 151,
      "τ": 152,
      "Б": 153,
      "В": 154,
      "И": 155,
      "а": 156,
      "б": 157,
      "в": 158,
      "г": 159,
      "д": 160,
      "е": 161,
      "ж": 162,
      "и": 163,
      "й": 164,
      "к": 165,
      "л": 166,
      "н": 167,
      "о": 168,
      "п": 169,
      "р": 170,
      "с": 171,
      "т": 172,
      "у": 173,
      "ш": 174,
      "ы": 175,
      "ь": 176,
      "я": 177,
      "і": 178,
      "إ": 179,
      "ا": 180,
      "ة": 181,
      "ت": 182,
      "ج": 183,
      "ح": 184,
      "د": 185,
      "ز": 186,
      "ش": 187,
      "ك": 188,
      "ل": 189,
      "م": 190,
      "ن": 191,
      "و": 192,
      "ي": 193,
      "द": 194,
      "न": 195,
      "ह": 196,
      "ि": 197,
      "ी": 198,
      "्": 199,
      "অ": 200,
      "ম": 201,
      "য": 202,
      "স": 203,
      "়": 204,
      "া": 205,
      "ী": 206,
      "ก": 207,
      "ง": 208,
      "จ": 209,
      "ช": 210,
      "ซ": 211,
      "ณ": 212,
      "น": 213,
      "ย": 214,
      "ร": 215,
      "ฤ": 216,
      "ว": 217,
      "ษ": 218,
      "ส": 219,
      "ห": 220,
      "อ": 221,
      "ั": 222,
      "า": 223,
      "ี": 224,
      "เ": 225,
      "ạ": 226,
      "ả": 227,
      "ế": 228,
      "ể": 229,
      "ệ": 230,
      "ị": 231,
      "ổ": 232,
      "ờ": 233,
      "ở": 234,
      "ợ": 235,
      "ủ": 236,
      "ữ": 237,
      "ự": 238,
      "‐": 239,
      "–": 240,
      "—": 241,
      "‘": 242,
      "’": 243,
      "“": 244,
      "”": 245,
      "…": 246,
      "⁶": 247,
      "℃": 248,
      "™": 249,
      "→": 250,
      "↦": 251,
      "⇒": 252,
      "∂": 253,
      "∈": 254,
      "∞": 255,
      "≤": 256,
      "≥": 257,
      "⌟": 258,
      "█": 259,
      "░": 260,
      "☺": 261,
      "。": 262,
      "イ": 263,
      "ギ": 264,
      "シ": 265,
      "ス": 266,
      "ョ": 267,
      "リ": 268,
      "ー": 269,
      "下": 270,
      "世": 271,
      "中": 272,
      "了": 273,
      "以": 274,
      "伯": 275,
      "你": 276,
      "保": 277,
      "信": 278,
      "值": 279,
      "关": 280,
      "分": 281,
      "列": 282,
      "前": 283,
      "单": 284,
      "参": 285,
      "取": 286,
      "可": 287,
      "回": 288,
      "国": 289,
      "國": 290,
      "在": 291,
      "处": 292,
      "复": 293,
      "头": 294,
      "好": 295,
      "子": 296,
      "字": 297,
      "州": 298,
      "序": 299,
      "应": 300,
      "廣": 301,
      "开": 302,
      "式": 303,
      "息": 304,
      "所": 305,
      "据": 306,
      "排": 307,
      "数": 308,
      "文": 309,
      "显": 310,
      "有": 311,
      "柏": 312,
      "根": 313,
      "格": 314,
      "父": 315,
      "独": 316,
      "理": 317,
      "界": 318,
      "留": 319,
      "的": 320,
      "相": 321,
      "示": 322,
      "符": 323,
      "簫": 324,
      "类": 325,
      "納": 326,
      "纳": 327,
      "能": 328,
      "英": 329,
      "获": 330,
      "萧": 331,
      "表": 332,
      "話": 333,
      "語": 334,
      "该": 335,
      "语": 336,
      "返": 337,
      "选": 338,
      "重": 339,
      "面": 340,
      "页": 341,
      "（": 342,
      "）": 343,
      "，": 344,
      "😁": 345,
      "se": 346,
      "in": 347,
      "re": 348,
      "on": 349,
      "at": 350,
      "er": 351,
      "or": 352,
      "st": 353,
      "th": 354,
      "en": 355,
      "al": 356,
      "ar": 357,
      "de": 358,
      "\"\"": 359,
      "an": 360,
      "me": 361,
      "le": 362,
      "ti": 363,
      "sel": 364,
      "self": 365,
      "ur": 366,
      "the": 367,
      "ce": 368,
      "if": 369,
      "is": 370,
      "te": 371,
      "ge": 372,
      "co": 373,
      "ro": 374,
      "to": 375,
      "--": 376,
      "fi": 377,
      "ame": 378,
      "\"\"\"": 379,
      "ue": 380,
      "ing": 381,
      "):": 382,
      "pe": 383,
      "for": 384,
      "lo": 385,
      "tur": 386,
      "turn": 387,
      "as": 388,
      "t_": 389,
      "ch": 390,
      "tion": 391,
      "un": 392,
      "ate": 393,
      "id": 394,
      "li": 395,
      "ct": 396,
      "ad": 397,
      "return": 398,
      "no": 399,
      "def": 400,
      "ion": 401,
      "tr": 402,
      "el": 403,
      "con": 404,
      "name": 405,
      "ty": 406,
      "of": 407,
      "di": 408,
      "val": 409,
      "and": 410,
      "ent": 411,
      "par": 412,
      "am": 413,
      "ex": 414,
      "res": 415,
      "ul": 416,
      "ter": 417,
      "ra": 418,
      "one": 419,
      "ata": 420,
      "str": 421,
      "ke": 422,
      "ma": 423,
      "()": 424,
      "ut": 425,
      "um": 426,
      "type": 427,
      "ed": 428,
      "None": 429,
      "es": 430,
      "ts": 431,
      "data": 432,
      "not": 433,
      "si": 434,
      "ck": 435,
      "ab": 436,
      "ation": 437,
      "value": 438,
      "ser": 439,
      "mp": 440,
      "----": 441,
      "he": 442,
      "up": 443,
      "po": 444,
      "pat": 445,
      "wi": 446,
      "ver": 447,
      "file": 448,
      "ob": 449,
      "arg": 450,
      "d_": 451,
      "ri": 452,
      "mo": 453,
      "pro": 454,
      "ap": 455,
      "mat": 456,
      "path": 457,
      "ne": 458,
      "be": 459,
      "))": 460,
      "ror": 461,
      "ss": 462,
      "op": 463,
      "',": 464,
      "ction": 465,
      "it": 466,
      "ol": 467,
      "('": 468,
      "all": 469,
      "cl": 470,
      "ve": 471,
      "key": 472,
      "pa": 473,
      "Re": 474,
      "int": 475,
      "param": 476,
      "s_": 477,
      "end": 478,
      "len": 479,
      "set": 480,
      "list": 481,
      "get": 482,
      "['": 483,
      "ta": 484,
      "']": 485,
      "time": 486,
      "vi": 487,
      "obj": 488,
      "age": 489,
      "su": 490,
      "able": 491,
      "il": 492,
      "')": 493,
      "==": 494,
      "bu": 495,
      "qu": 496,
      "bo": 497,
      "ance": 498,
      "lin": 499,
      "with": 500,
      "ren": 501,
      "sh": 502,
      "rom": 503,
      "args": 504,
      "':": 505,
      "out": 506,
      "Er": 507,
      "from": 508,
      "Error": 509,
      "ect": 510,
      "get_": 511,
      "(\"": 512,
      "else": 513,
      "ise": 514,
      "fo": 515,
      "ult": 516,
      "per": 517,
      "do": 518,
      "la": 519,
      "ly": 520,
      "ord": 521,
      "pre": 522,
      "format": 523,
      "tex": 524,
      "ba": 525,
      "que": 526,
      "stance": 527,
      "app": 528,
      "sion": 529,
      "code": 530,
      "_name": 531,
      "ass": 532,
      "try": 533,
      "col": 534,
      "cep": 535,
      "ment": 536,
      "ig": 537,
      "log": 538,
      "_s": 539,
      "ic": 540,
      "Tr": 541,
      "raise": 542,
      "by": 543,
      "The": 544,
      "pec": 545,
      "che": 546,
      "date": 547,
      "text": 548,
      "py": 549,
      "ted": 550,
      "_id": 551,
      "are": 552,
      "ac": 553,
      "True": 554,
      "so": 555,
      "ze": 556,
      "et": 557,
      "sc": 558,
      "string": 559,
      "``": 560,
      "fig": 561,
      "ray": 562,
      "tem": 563,
      "object": 564,
      "fa": 565,
      "ll": 566,
      "In": 567,
      "ist": 568,
      "Return": 569,
      "read": 570,
      "num": 571,
      "''": 572,
      "alse": 573,
      "we": 574,
      "ort": 575,
      "-+": 576,
      "us": 577,
      "use": 578,
      "instance": 579,
      "tri": 580,
      "com": 581,
      "False": 582,
      "wh": 583,
      "ers": 584,
      "\",": 585,
      "quest": 586,
      "_c": 587,
      "fun": 588,
      "line": 589,
      "),": 590,
      "-+-+": 591,
      "sub": 592,
      "{}": 593,
      "that": 594,
      "ces": 595,
      "item": 596,
      "dict": 597,
      "array": 598,
      "dex": 599,
      "cur": 600,
      "red": 601,
      "comp": 602,
      "ip": 603,
      "this": 604,
      "_in": 605,
      "excep": 606,
      "kw": 607,
      "cess": 608,
      "coun": 609,
      "ctor": 610,
      "option": 611,
      "\")": 612,
      "config": 613,
      "put": 614,
      "low": 615,
      "**": 616,
      "ameter": 617,
      "amp": 618,
      "eld": 619,
      "wor": 620,
      "new": 621,
      "ure": 622,
      "request": 623,
      "und": 624,
      "spec": 625,
      "ven": 626,
      "node": 627,
      "error": 628,
      "load": 629,
      "user": 630,
      "od": 631,
      "del": 632,
      "sen": 633,
      "ger": 634,
      "np": 635,
      "ht": 636,
      "ber": 637,
      "work": 638,
      "defa": 639,
      "ca": 640,
      "kwargs": 641,
      "Returns": 642,
      "min": 643,
      "fe": 644,
      "values": 645,
      "star": 646,
      "pon": 647,
      "])": 648,
      "append": 649,
      "gi": 650,
      "ph": 651,
      "add": 652,
      "Con": 653,
      "enti": 654,
      "sy": 655,
      "loc": 656,
      "cont": 657,
      "meth": 658,
      "Par": 659,
      "ali": 660,
      "reate": 661,
      "ust": 662,
      "class": 663,
      "max": 664,
      "_type": 665,
      ">>": 666,
      "ange": 667,
      "__": 668,
      "os": 669,
      "mess": 670,
      "],": 671,
      "ary": 672,
      "rec": 673,
      "message": 674,
      "size": 675,
      "has": 676,
      "url": 677,
      "pr": 678,
      "--------": 679,
      "ans": 680,
      "Val": 681,
      "ator": 682,
      "valid": 683,
      "result": 684,
      "Ex": 685,
      "form": 686,
      "tar": 687,
      "ther": 688,
      "gro": 689,
      "ile": 690,
      "If": 691,
      "base": 692,
      "urce": 693,
      "rent": 694,
      "tes": 695,
      "'.": 696,
      "gen": 697,
      "ind": 698,
      "dir": 699,
      "ask": 700,
      "ho": 701,
      "..": 702,
      "vent": 703,
      "respon": 704,
      "index": 705,
      "gs": 706,
      "comm": 707,
      "pu": 708,
      ").": 709,
      "vice": 710,
      "pi": 711,
      "stat": 712,
      "sig": 713,
      "except": 714,
      "will": 715,
      "version": 716,
      "im": 717,
      "var": 718,
      "state": 719,
      "head": 720,
      "to_": 721,
      "wri": 722,
      "au": 723,
      "group": 724,
      "method": 725,
      "ameters": 726,
      "back": 727,
      "Value": 728,
      "elif": 729,
      "du": 730,
      "er_": 731,
      "call": 732,
      "field": 733,
      "ec": 734,
      "00": 735,
      "ument": 736,
      "ms": 737,
      "ste": 738,
      "tra": 739,
      "pla": 740,
      "ot": 741,
      ":`": 742,
      "sp": 743,
      "Th": 744,
      "default": 745,
      "ample": 746,
      "response": 747,
      "lock": 748,
      "ok": 749,
      "ies": 750,
      "scri": 751,
      "ption": 752,
      "al_": 753,
      "map": 754,
      "om": 755,
      "uni": 756,
      "son": 757,
      "function": 758,
      "ery": 759,
      "tain": 760,
      "is_": 761,
      "[\"": 762,
      "ype": 763,
      "ded": 764,
      "temp": 765,
      "ext": 766,
      "gr": 767,
      "_data": 768,
      "attr": 769,
      "imp": 770,
      "count": 771,
      ".\"\"\"": 772,
      "model": 773,
      "Ar": 774,
      "_path": 775,
      "_re": 776,
      "\":": 777,
      "match": 778,
      "can": 779,
      "update": 780,
      "check": 781,
      "number": 782,
      "parse": 783,
      "isinstance": 784,
      "inter": 785,
      "info": 786,
      "specif": 787,
      "gth": 788,
      "sign": 789,
      "ave": 790,
      "De": 791,
      "This": 792,
      "row": 793,
      "ken": 794,
      "trans": 795,
      "flo": 796,
      "filen": 797,
      "='": 798,
      "fix": 799,
      "tribu": 800,
      "given": 801,
      "query": 802,
      "ated": 803,
      "fil": 804,
      "run": 805,
      "oin": 806,
      "context": 807,
      "port": 808,
      "():": 809,
      "ir": 810,
      "sor": 811,
      "ting": 812,
      "lab": 813,
      "float": 814,
      "lic": 815,
      "hand": 816,
      "-+-+-+-+": 817,
      "filename": 818,
      "mage": 819,
      "ps": 820,
      "token": 821,
      "ay": 822,
      "ild": 823,
      "wn": 824,
      "params": 825,
      "point": 826,
      "join": 827,
      "cli": 828,
      "dire": 829,
      "av": 830,
      "event": 831,
      "ax": 832,
      "create": 833,
      "pl": 834,
      "conne": 835,
      "ID": 836,
      "keys": 837,
      "length": 838,
      "\"]": 839,
      "rame": 840,
      "[]": 841,
      "contain": 842,
      "'''": 843,
      "st_": 844,
      "ang": 845,
      "cls": 846,
      "json": 847,
      "ent_": 848,
      "names": 849,
      "\".": 850,
      "ou": 851,
      "write": 852,
      "ON": 853,
      "logger": 854,
      "dis": 855,
      "df": 856,
      "sho": 857,
      "ults": 858,
      "label": 859,
      "whi": 860,
      "cal": 861,
      "ER": 862,
      "umn": 863,
      "uld": 864,
      "remo": 865,
      "sing": 866,
      "No": 867,
      "lement": 868,
      "_f": 869,
      "items": 870,
      "Type": 871,
      "Get": 872,
      "ute": 873,
      "Data": 874,
      "ValueError": 875,
      "ff": 876,
      "off": 877,
      "process": 878,
      "print": 879,
      "ses": 880,
      "IN": 881,
      "block": 882,
      "iter": 883,
      "sed": 884,
      "word": 885,
      "_file": 886,
      "column": 887,
      "filter": 888,
      "table": 889,
      "reg": 890,
      "options": 891,
      "func": 892,
      "output": 893,
      "der": 894,
      "command": 895,
      "any": 896,
      "Parameters": 897,
      "start": 898,
      "ctory": 899,
      "bug": 900,
      "ST": 901,
      "ied": 902,
      "ints": 903,
      "image": 904,
      "mis": 905,
      "p_": 906,
      "ations": 907,
      "dy": 908,
      "pace": 909,
      "which": 910,
      "qui": 911,
      "ress": 912,
      "debug": 913,
      "orm": 914,
      "range": 915,
      "exist": 916,
      "gener": 917,
      "les": 918,
      "argument": 919,
      "api": 920,
      "entry": 921,
      "clu": 922,
      "net": 923,
      "sha": 924,
      "ini": 925,
      "task": 926,
      "raph": 927,
      "parser": 928,
      "Co": 929,
      "vel": 930,
      "ds": 931,
      ">>>": 932,
      "ach": 933,
      "ning": 934,
      "----------": 935,
      "source": 936,
      "attribu": 937,
      "proper": 938,
      "cke": 939,
      "ag": 940,
      "exp": 941,
      "dep": 942,
      "put_": 943,
      "].": 944,
      "msg": 945,
      "action": 946,
      "aly": 947,
      "+=": 948,
      "arch": 949,
      "only": 950,
      "record": 951,
      "used": 952,
      "auth": 953,
      "set_": 954,
      "cor": 955,
      "job": 956,
      "fir": 957,
      "Pro": 958,
      "other": 959,
      "content": 960,
      "ree": 961,
      "c_": 962,
      "spli": 963,
      "target": 964,
      "E_": 965,
      "ding": 966,
      "bool": 967,
      "feren": 968,
      "ties": 969,
      "y_": 970,
      "ed_": 971,
      "pass": 972,
      "vari": 973,
      "service": 974,
      "ull": 975,
      "ati": 976,
      "dif": 977,
      "place": 978,
      "stru": 979,
      "AT": 980,
      "war": 981,
      "ew": 982,
      "returns": 983,
      "An": 984,
      "current": 985,
      "whe": 986,
      "lib": 987,
      "open": 988,
      "ource": 989,
      "Args": 990,
      "!=": 991,
      "ream": 992,
      "over": 993,
      "olu": 994,
      "tag": 995,
      "Un": 996,
      "must": 997,
      "igh": 998,
      "RE": 999,
      "modu": 1000,
      "color": 1001,
      "tup": 1002,
      "ject": 1003,
      "mit": 1004,
      "add_": 1005,
      "points": 1006,
      "pri": 1007,
      "sup": 1008,
      "Name": 1009,
      "cate": 1010,
      "_key": 1011,
      "scription": 1012,
      "status": 1013,
      "ase": 1014,
      "late": 1015,
      "sum": 1016,
      "ally": 1017,
      "ml": 1018,
      "its": 1019,
      "page": 1020,
      "main": 1021,
      "met": 1022,
      "St": 1023,
      "offset": 1024,
      "enc": 1025,
      "doc": 1026,
      "mar": 1027,
      "wa": 1028,
      "lot": 1029,
      "aliz": 1030,
      "ble": 1031,
      "tern": 1032,
      "prefix": 1033,
      "sess": 1034,
      "body": 1035,
      "ing_": 1036,
      "[:": 1037,
      "have": 1038,
      "([": 1039,
      "oc": 1040,
      "shape": 1041,
      "rtype": 1042,
      "ature": 1043,
      "session": 1044,
      "())": 1045,
      "Se": 1046,
      "ory": 1047,
      "nel": 1048,
      "por": 1049,
      "List": 1050,
      "pack": 1051,
      "files": 1052,
      "input": 1053,
      "element": 1054,
      "led": 1055,
      "wid": 1056,
      "grid": 1057,
      "Ad": 1058,
      "new_": 1059,
      "fin": 1060,
      "lete": 1061,
      "ug": 1062,
      "ception": 1063,
      "identi": 1064,
      "import": 1065,
      "((": 1066,
      "_b": 1067,
      "mul": 1068,
      "thon": 1069,
      "_list": 1070,
      "hash": 1071,
      "Exception": 1072,
      "adata": 1073,
      "norm": 1074,
      "yn": 1075,
      "split": 1076,
      "level": 1077,
      "ence": 1078,
      "til": 1079,
      "posi": 1080,
      "raw": 1081,
      "exception": 1082,
      "results": 1083,
      "char": 1084,
      "exec": 1085,
      "stream": 1086,
      "tive": 1087,
      "cre": 1088,
      "specified": 1089,
      "copy": 1090,
      "ield": 1091,
      "lines": 1092,
      "tuple": 1093,
      "frame": 1094,
      "tle": 1095,
      "client": 1096,
      "rent_": 1097,
      "man": 1098,
      "ant": 1099,
      "pay": 1100,
      "Ke": 1101,
      "mode": 1102,
      "clo": 1103,
      "md": 1104,
      "server": 1105,
      "10": 1106,
      "pt": 1107,
      "------": 1108,
      "mem": 1109,
      "ference": 1110,
      "ard": 1111,
      "ight": 1112,
      "clude": 1113,
      "max_": 1114,
      "should": 1115,
      "OR": 1116,
      "pos": 1117,
      "optional": 1118,
      "file_": 1119,
      "T_": 1120,
      "analy": 1121,
      "En": 1122,
      "network": 1123,
      "ref": 1124,
      "diction": 1125,
      "...": 1126,
      "stem": 1127,
      "module": 1128,
      "header": 1129,
      "'):": 1130,
      "make": 1131,
      "sent": 1132,
      "bytes": 1133,
      "Key": 1134,
      "'],": 1135,
      "first": 1136,
      "view": 1137,
      "sto": 1138,
      "into": 1139,
      "ine": 1140,
      "change": 1141,
      "File": 1142,
      "Lo": 1143,
      "AP": 1144,
      "ved": 1145,
      "host": 1146,
      "_de": 1147,
      "EN": 1148,
      "{'": 1149,
      "headers": 1150,
      "each": 1151,
      "sample": 1152,
      "directory": 1153,
      "atch": 1154,
      "emp": 1155,
      "->": 1156,
      "lob": 1157,
      "ail": 1158,
      "order": 1159,
      "oper": 1160,
      "mi": 1161,
      "title": 1162,
      "timeout": 1163,
      "even": 1164,
      "Di": 1165,
      "(),": 1166,
      "ler": 1167,
      "requi": 1168,
      "encode": 1169,
      "lay": 1170,
      "cul": 1171,
      "medi": 1172,
      "ron": 1173,
      "ins": 1174,
      "allow": 1175,
      "old": 1176,
      "ub": 1177,
      "ack": 1178,
      "when": 1179,
      "address": 1180,
      "unicode": 1181,
      "wait": 1182,
      "ates": 1183,
      "sys": 1184,
      "act": 1185,
      "axis": 1186,
      "rel": 1187,
      "clas": 1188,
      "search": 1189,
      "sure": 1190,
      "objects": 1191,
      "_info": 1192,
      "payload": 1193,
      "##": 1194,
      "=\"": 1195,
      "from_": 1196,
      "like": 1197,
      "struct": 1198,
      "af": 1199,
      "uid": 1200,
      "ak": 1201,
      "DE": 1202,
      "setting": 1203,
      "parent": 1204,
      "attribute": 1205,
      "ments": 1206,
      "Set": 1207,
      "ension": 1208,
      "chema": 1209,
      "stri": 1210,
      "n_": 1211,
      "ct_": 1212,
      "_size": 1213,
      "link": 1214,
      "our": 1215,
      "Res": 1216,
      "contin": 1217,
      "child": 1218,
      "datetime": 1219,
      "io": 1220,
      "sele": 1221,
      "_value": 1222,
      "replace": 1223,
      "parameter": 1224,
      "htt": 1225,
      "zer": 1226,
      "metadata": 1227,
      "graph": 1228,
      "als": 1229,
      "-+-+-+-+-+-+-+-+": 1230,
      "connection": 1231,
      "mission": 1232,
      "For": 1233,
      "root": 1234,
      "width": 1235,
      "db": 1236,
      "cle": 1237,
      "v_": 1238,
      "rix": 1239,
      "sert": 1240,
      "fore": 1241,
      "Ser": 1242,
      "found": 1243,
      "bound": 1244,
      "-------": 1245,
      "fier": 1246,
      "stor": 1247,
      "LO": 1248,
      "cache": 1249,
      "().": 1250,
      "remove": 1251,
      "pop": 1252,
      "mark": 1253,
      "//": 1254,
      "da": 1255,
      "ative": 1256,
      "Create": 1257,
      "but": 1258,
      "orig": 1259,
      "space": 1260,
      "fields": 1261,
      "dictionary": 1262,
      "ult_": 1263,
      "cket": 1264,
      "sco": 1265,
      "ori": 1266,
      "parti": 1267,
      "inst": 1268,
      "lat": 1269,
      "face": 1270,
      "tions": 1271,
      "_time": 1272,
      "multi": 1273,
      "ep": 1274,
      "Instance": 1275,
      "secon": 1276,
      "stamp": 1277,
      "indi": 1278,
      "AR": 1279,
      "sis": 1280,
      "queue": 1281,
      "resource": 1282,
      "UR": 1283,
      "tree": 1284,
      "top": 1285,
      "continue": 1286,
      "parameters": 1287,
      "dtype": 1288,
      "ath": 1289,
      "idx": 1290,
      "matrix": 1291,
      "alize": 1292,
      "_p": 1293,
      "coord": 1294,
      "sequ": 1295,
      "variable": 1296,
      "resh": 1297,
      "event_": 1298,
      "flow": 1299,
      "pub": 1300,
      "_version": 1301,
      "annel": 1302,
      "properties": 1303,
      "seri": 1304,
      "onent": 1305,
      "]:": 1306,
      "section": 1307,
      "uration": 1308,
      "where": 1309,
      "ast": 1310,
      "_to_": 1311,
      "rap": 1312,
      "pipe": 1313,
      "arguments": 1314,
      "does": 1315,
      "_get_": 1316,
      "olution": 1317,
      "unk": 1318,
      "full": 1319,
      "day": 1320,
      "post": 1321,
      "ted_": 1322,
      "handle": 1323,
      "ate_": 1324,
      "yield": 1325,
      "in_": 1326,
      "pattern": 1327,
      "ime": 1328,
      "limit": 1329,
      "ping": 1330,
      "using": 1331,
      "nodes": 1332,
      "read_": 1333,
      "strip": 1334,
      "non": 1335,
      "extra": 1336,
      "while": 1337,
      "20": 1338,
      "ME": 1339,
      "ong": 1340,
      "TI": 1341,
      "mag": 1342,
      "output_": 1343,
      "errors": 1344,
      "access": 1345,
      "scal": 1346,
      "edge": 1347,
      "component": 1348,
      "ish": 1349,
      "depend": 1350,
      "_con": 1351,
      "provi": 1352,
      "down": 1353,
      "asyn": 1354,
      "was": 1355,
      "Str": 1356,
      "fla": 1357,
      "empty": 1358,
      "warning": 1359,
      "rest": 1360,
      "IP": 1361,
      "ready": 1362,
      "box": 1363,
      "Add": 1364,
      "====": 1365,
      "system": 1366,
      "glob": 1367,
      "util": 1368,
      "mb": 1369,
      "callback": 1370,
      "bin": 1371,
      "_url": 1372,
      "tot": 1373,
      "AL": 1374,
      "_names": 1375,
      "Option": 1376,
      "cri": 1377,
      "types": 1378,
      "vis": 1379,
      "ched": 1380,
      "br": 1381,
      "seg": 1382,
      "timestamp": 1383,
      "storage": 1384,
      ")))": 1385,
      "play": 1386,
      "location": 1387,
      "channel": 1388,
      "Event": 1389,
      "plot": 1390,
      "_dir": 1391,
      "seq": 1392,
      "current_": 1393,
      "Time": 1394,
      "cted": 1395,
      "ging": 1396,
      "mer": 1397,
      "Po": 1398,
      "settings": 1399,
      "Py": 1400,
      "dim": 1401,
      "enco": 1402,
      "][": 1403,
      "a_": 1404,
      "API": 1405,
      "`.": 1406,
      "ply": 1407,
      "after": 1408,
      "Me": 1409,
      "ess": 1410,
      "template": 1411,
      "mask": 1412,
      "description": 1413,
      "target_": 1414,
      "enum": 1415,
      "ener": 1416,
      "pas": 1417,
      "uri": 1418,
      "then": 1419,
      "thro": 1420,
      "'])": 1421,
      "ants": 1422,
      "bi": 1423,
      "fol": 1424,
      "mesh": 1425,
      "_dict": 1426,
      "At": 1427,
      "wo": 1428,
      "amb": 1429,
      "Id": 1430,
      "cmd": 1431,
      "mon": 1432,
      "formation": 1433,
      "find": 1434,
      "x_": 1435,
      "req": 1436,
      "Che": 1437,
      "cat": 1438,
      "})": 1439,
      "now": 1440,
      "schema": 1441,
      "repre": 1442,
      "conver": 1443,
      "avail": 1444,
      "://": 1445,
      "pair": 1446,
      "Parse": 1447,
      "imum": 1448,
      "go": 1449,
      "exists": 1450,
      "python": 1451,
      "ret": 1452,
      "dition": 1453,
      "labels": 1454,
      "package": 1455,
      "TO": 1456,
      "ci": 1457,
      "ccess": 1458,
      "Check": 1459,
      "tries": 1460,
      "indo": 1461,
      "indow": 1462,
      "or_": 1463,
      "html": 1464,
      "store": 1465,
      "Ra": 1466,
      "reak": 1467,
      "origin": 1468,
      "sequence": 1469,
      "cei": 1470,
      "vector": 1471,
      "last": 1472,
      "device": 1473,
      "returned": 1474,
      "ager": 1475,
      "stack": 1476,
      "lower": 1477,
      "bet": 1478,
      "include": 1479,
      "local": 1480,
      "cer": 1481,
      "decode": 1482,
      "test": 1483,
      "_pro": 1484,
      "sid": 1485,
      "case": 1486,
      "position": 1487,
      "start_": 1488,
      "than": 1489,
      "tool": 1490,
      "ression": 1491,
      "single": 1492,
      "hel": 1493,
      "buff": 1494,
      "AC": 1495,
      "may": 1496,
      "cent": 1497,
      "loop": 1498,
      "_di": 1499,
      "'))": 1500,
      "LE": 1501,
      "Ob": 1502,
      "already": 1503,
      "anch": 1504,
      "stop": 1505,
      "you": 1506,
      "part": 1507,
      "[-": 1508,
      "ves": 1509,
      "there": 1510,
      "available": 1511,
      "ures": 1512,
      "lease": 1513,
      "iled": 1514,
      "termin": 1515,
      "async": 1516,
      "wise": 1517,
      "same": 1518,
      "handler": 1519,
      "sr": 1520,
      "64": 1521,
      "SE": 1522,
      "UT": 1523,
      "Read": 1524,
      "syn": 1525,
      "HT": 1526,
      "reference": 1527,
      "Ch": 1528,
      "tran": 1529,
      "Path": 1530,
      "identifier": 1531,
      "_d": 1532,
      "before": 1533,
      "columns": 1534,
      "err": 1535,
      "rand": 1536,
      "`,": 1537,
      "transform": 1538,
      "sets": 1539,
      "cho": 1540,
      "logging": 1541,
      "close": 1542,
      "assert": 1543,
      "need": 1544,
      "S_": 1545,
      "break": 1546,
      "zip": 1547,
      "::": 1548,
      "it_": 1549,
      "wrap": 1550,
      "abs": 1551,
      "alle": 1552,
      "ill": 1553,
      "SI": 1554,
      "lamb": 1555,
      "ous": 1556,
      "series": 1557,
      "ity": 1558,
      "next": 1559,
      "regist": 1560,
      "tric": 1561,
      "viron": 1562,
      "Context": 1563,
      "ment_": 1564,
      "mail": 1565,
      "_index": 1566,
      "FI": 1567,
      "etch": 1568,
      "exc": 1569,
      "To": 1570,
      "specific": 1571,
      "encoding": 1572,
      "ped": 1573,
      "lambda": 1574,
      "Raise": 1575,
      "_token": 1576,
      "annot": 1577,
      "vo": 1578,
      "100": 1579,
      "delete": 1580,
      "AN": 1581,
      "colle": 1582,
      "cr": 1583,
      "PO": 1584,
      "ten": 1585,
      "(*": 1586,
      "v1": 1587,
      "mean": 1588,
      "starts": 1589,
      "lang": 1590,
      "initi": 1591,
      "class_": 1592,
      "ft": 1593,
      "more": 1594,
      "default_": 1595,
      "ght": 1596,
      "defini": 1597,
      "out_": 1598,
      "igno": 1599,
      "adi": 1600,
      "passed": 1601,
      "container": 1602,
      "CO": 1603,
      "trie": 1604,
      "Defa": 1605,
      "num_": 1606,
      "username": 1607,
      ")]": 1608,
      "URL": 1609,
      "twi": 1610,
      "ful": 1611,
      "ple": 1612,
      "ation_": 1613,
      "Request": 1614,
      "domain": 1615,
      "save": 1616,
      "ual": 1617,
      "build": 1618,
      "provided": 1619,
      "check_": 1620,
      "resol": 1621,
      "nown": 1622,
      "ker": 1623,
      "Comp": 1624,
      "ole": 1625,
      "dest": 1626,
      "account": 1627,
      "_spec": 1628,
      "int_": 1629,
      "property": 1630,
      "pipeline": 1631,
      "'/": 1632,
      "vide": 1633,
      "ign": 1634,
      "TypeError": 1635,
      "ween": 1636,
      "LOG": 1637,
      "attributes": 1638,
      "analysis": 1639,
      "data_": 1640,
      "lient": 1641,
      "cts": 1642,
      "between": 1643,
      "height": 1644,
      "Num": 1645,
      "'%": 1646,
      "We": 1647,
      "DO": 1648,
      "Not": 1649,
      "input_": 1650,
      "us_": 1651,
      ")):": 1652,
      "plug": 1653,
      "_r": 1654,
      "permission": 1655,
      "lio": 1656,
      "ustom": 1657,
      "missing": 1658,
      "environ": 1659,
      "ating": 1660,
      "ize": 1661,
      "ect_": 1662,
      "SON": 1663,
      "unique": 1664,
      "Item": 1665,
      "conf": 1666,
      "geo": 1667,
      "fail": 1668,
      "ported": 1669,
      "categ": 1670,
      "ear": 1671,
      "og": 1672,
      "side": 1673,
      "gets": 1674,
      "groups": 1675,
      "std": 1676,
      "defin": 1677,
      "parse_": 1678,
      "const": 1679,
      "Al": 1680,
      "'].": 1681,
      "ency": 1682,
      "core": 1683,
      "[:,": 1684,
      "endpoint": 1685,
      "den": 1686,
      "uage": 1687,
      "all_": 1688,
      "force": 1689,
      "tail": 1690,
      "way": 1691,
      "random": 1692,
      "Up": 1693,
      "script": 1694,
      "D_": 1695,
      "Run": 1696,
      "tx": 1697,
      "getattr": 1698,
      "'),": 1699,
      "auto": 1700,
      "TP": 1701,
      "ild_": 1702,
      "sty": 1703,
      "sk": 1704,
      "NA": 1705,
      "pli": 1706,
      "chunk": 1707,
      "site": 1708,
      "enumer": 1709,
      "_of": 1710,
      "_string": 1711,
      "nd": 1712,
      "thread": 1713,
      "Invalid": 1714,
      "parser_": 1715,
      "namespace": 1716,
      "ns": 1717,
      "Frame": 1718,
      "PE": 1719,
      "JSON": 1720,
      "inte": 1721,
      "information": 1722,
      "metric": 1723,
      "12": 1724,
      "calcul": 1725,
      "seconds": 1726,
      "Raises": 1727,
      "ache": 1728,
      "ort_": 1729,
      "produ": 1730,
      "Mo": 1731,
      "just": 1732,
      "generator": 1733,
      ".')": 1734,
      "see": 1735,
      "moun": 1736,
      ".\")": 1737,
      "},": 1738,
      "ked": 1739,
      "TE": 1740,
      "paths": 1741,
      "meta": 1742,
      "eld_": 1743,
      "containing": 1744,
      "configuration": 1745,
      "cs": 1746,
      "thresh": 1747,
      "{}\".": 1748,
      "olume": 1749,
      "operation": 1750,
      "field_": 1751,
      "vices": 1752,
      "region": 1753,
      "16": 1754,
      "look": 1755,
      "move": 1756,
      "twilio": 1757,
      "sible": 1758,
      "step": 1759,
      "enumerate": 1760,
      "don": 1761,
      "thing": 1762,
      "messages": 1763,
      "Object": 1764,
      "m_": 1765,
      "cell": 1766,
      "tocol": 1767,
      "rt": 1768,
      "ule": 1769,
      "database": 1770,
      "byte": 1771,
      "_call": 1772,
      "buffer": 1773,
      "}'.": 1774,
      "been": 1775,
      "mapping": 1776,
      "end_": 1777,
      "old_": 1778,
      "email": 1779,
      "diff": 1780,
      "zero": 1781,
      "remote": 1782,
      "mediator": 1783,
      "Mess": 1784,
      "required": 1785,
      "events": 1786,
      "delta": 1787,
      "tifi": 1788,
      "_sid": 1789,
      "sensor": 1790,
      "type_": 1791,
      "gram": 1792,
      "Node": 1793,
      "manager": 1794,
      "TY": 1795,
      "clust": 1796,
      "Graph": 1797,
      "cation": 1798,
      "sa": 1799,
      "total": 1800,
      "g_": 1801,
      "numpy": 1802,
      "25": 1803,
      "<=": 1804,
      "utf": 1805,
      "verse": 1806,
      "Col": 1807,
      "success": 1808,
      "ice": 1809,
      "recei": 1810,
      "very": 1811,
      "Message": 1812,
      "kind": 1813,
      "send": 1814,
      "String": 1815,
      "raises": 1816,
      "password": 1817,
      "factor": 1818,
      "scale": 1819,
      "pen": 1820,
      "tags": 1821,
      "Call": 1822,
      "text_": 1823,
      "proj": 1824,
      ":`~": 1825,
      "sorted": 1826,
      "await": 1827,
      "load_": 1828,
      "gistr": 1829,
      "records": 1830,
      "ud": 1831,
      "here": 1832,
      "uth": 1833,
      "rol": 1834,
      "verti": 1835,
      "Config": 1836,
      "connect": 1837,
      "startswith": 1838,
      "defined": 1839,
      "SC": 1840,
      "disable": 1841,
      "IO": 1842,
      "project": 1843,
      "some": 1844,
      "ain": 1845,
      "area": 1846,
      "factory": 1847,
      "HTTP": 1848,
      "expression": 1849,
      ":]": 1850,
      "Do": 1851,
      "ors": 1852,
      "Index": 1853,
      "invalid": 1854,
      "actions": 1855,
      "track": 1856,
      "two": 1857,
      ">=": 1858,
      "active": 1859,
      "xml": 1860,
      "custom": 1861,
      "UL": 1862,
      "rows": 1863,
      "lity": 1864,
      "Python": 1865,
      "Bu": 1866,
      "equ": 1867,
      "volume": 1868,
      "Qu": 1869,
      "window": 1870,
      "By": 1871,
      "env": 1872,
      "style": 1873,
      "assign": 1874,
      "components": 1875,
      "dum": 1876,
      "created": 1877,
      "execute": 1878,
      "ids": 1879,
      "On": 1880,
      "on_": 1881,
      "Attribu": 1882,
      "subscription": 1883,
      "multiple": 1884,
      "counts": 1885,
      "Number": 1886,
      "distance": 1887,
      "SS": 1888,
      "ctx": 1889,
      "keyword": 1890,
      "attrs": 1891,
      "32": 1892,
      "ctions": 1893,
      "vid": 1894,
      "based": 1895,
      "depth": 1896,
      "reply": 1897,
      "arti": 1898,
      "ell": 1899,
      "show": 1900,
      "amples": 1901,
      "modif": 1902,
      "Dict": 1903,
      "_h": 1904,
      "_P": 1905,
      "{}'.": 1906,
      "tmp": 1907,
      "comple": 1908,
      "Array": 1909,
      "angle": 1910,
      "'\\": 1911,
      "####": 1912,
      "video": 1913,
      "rag": 1914,
      "alias": 1915,
      "entries": 1916,
      "anti": 1917,
      "undle": 1918,
      "KeyError": 1919,
      "bit": 1920,
      "language": 1921,
      "extension": 1922,
      "User": 1923,
      "requests": 1924,
      "fill": 1925,
      "cause": 1926,
      "scope": 1927,
      "strings": 1928,
      "batch": 1929,
      "fs": 1930,
      "Conver": 1931,
      "ld": 1932,
      "sn": 1933,
      "DataFrame": 1934,
      "called": 1935,
      "pool": 1936,
      "Conne": 1937,
      "Imp": 1938,
      "setup": 1939,
      "event_data": 1940,
      "Job": 1941,
      "RO": 1942,
      "mt": 1943,
      "bers": 1944,
      "lish": 1945,
      "workflow": 1946,
      "Cont": 1947,
      "xy": 1948,
      "follow": 1949,
      "Spec": 1950,
      "ific": 1951,
      "lication": 1952,
      "_n": 1953,
      "ignore": 1954,
      "DI": 1955,
      "signature": 1956,
      "_str": 1957,
      "itu": 1958,
      "Optional": 1959,
      "ither": 1960,
      "]]": 1961,
      "ify": 1962,
      "layer": 1963,
      "merge": 1964,
      "Attribute": 1965,
      "ake": 1966,
      "ose": 1967,
      "_solution": 1968,
      "ING": 1969,
      "zone": 1970,
      "also": 1971,
      "extend": 1972,
      "gh": 1973,
      "parser_mediator": 1974,
      "year": 1975,
      "them": 1976,
      "expec": 1977,
      "bar": 1978,
      "est": 1979,
      "status_": 1980,
      "whether": 1981,
      "throat": 1982,
      "_class": 1983,
      "pk": 1984,
      "fit": 1985,
      "serializ": 1986,
      "cursor": 1987,
      "document": 1988,
      "fetch": 1989,
      "stribu": 1990,
      "ound": 1991,
      "left": 1992,
      "_code": 1993,
      "dt": 1994,
      "pect": 1995,
      "member": 1996,
      "http": 1997,
      "']['": 1998,
      "rect": 1999,
      "units": 2000,
      "Gener": 2001,
      "unit": 2002,
      "Valid": 2003,
      "Sto": 2004,
      "create_": 2005,
      "mbol": 2006,
      "month": 2007,
      "Fa": 2008,
      "UN": 2009,
      "tt": 2010,
      "med": 2011,
      "parts": 2012,
      "coordin": 2013,
      "count_": 2014,
      "supported": 2015,
      "'{": 2016,
      "It": 2017,
      "weigh": 2018,
      "update_": 2019,
      "0x": 2020,
      "known": 2021,
      "').": 2022,
      "skip": 2023,
      "cord": 2024,
      "GE": 2025,
      "structure": 2026,
      "Update": 2027,
      "-+-+-+-+-+-+-+-+-+-+-+-+-+-+-+-+": 2028,
      "cap": 2029,
      "temper": 2030,
      "find_": 2031,
      "ie": 2032,
      "branch": 2033,
      "pid": 2034,
      "dimension": 2035,
      "alog": 2036,
      "Ap": 2037,
      "_config": 2038,
      "https": 2039,
      "secre": 2040,
      "ext_": 2041,
      "require": 2042,
      "_state": 2043,
      "upper": 2044,
      "ML": 2045,
      "trac": 2046,
      "math": 2047,
      "Analy": 2048,
      "Or": 2049,
      "ial": 2050,
      "ndarray": 2051,
      "writer": 2052,
      "sort": 2053,
      "arr": 2054,
      "reader": 2055,
      "path_": 2056,
      "bra": 2057,
      "exclude": 2058,
      "display": 2059,
      "existing": 2060,
      "TODO": 2061,
      "stand": 2062,
      "min_": 2063,
      "_C": 2064,
      "utils": 2065,
      "enable": 2066,
      "example": 2067,
      "entity": 2068,
      "AD": 2069,
      "pand": 2070,
      "lim": 2071,
      "flags": 2072,
      "direct": 2073,
      "Default": 2074,
      "hook": 2075,
      "binary": 2076,
      "abi": 2077,
      "hasattr": 2078,
      "elements": 2079,
      "MP": 2080,
      "fut": 2081,
      "mary": 2082,
      "true": 2083,
      "less": 2084,
      "unset": 2085,
      "FA": 2086,
      "plan": 2087,
      "roo": 2088,
      "right": 2089,
      "by_": 2090,
      "cip": 2091,
      "lem": 2092,
      "temperature": 2093,
      "Cl": 2094,
      "ason": 2095,
      "gest": 2096,
      "State": 2097,
      "org": 2098,
      "added": 2099,
      "duce": 2100,
      "Wri": 2101,
      "otherwise": 2102,
      "des": 2103,
      "last_": 2104,
      "ader": 2105,
      "cook": 2106,
      "book": 2107,
      "charact": 2108,
      "time_": 2109,
      "olean": 2110,
      "pres": 2111,
      "pend": 2112,
      "counter": 2113,
      "({": 2114,
      "route": 2115,
      "apply": 2116,
      "MA": 2117,
      "__name": 2118,
      "previ": 2119,
      "failed": 2120,
      "cf": 2121,
      "lon": 2122,
      "faces": 2123,
      "commit": 2124,
      "See": 2125,
      "Build": 2126,
      "Ro": 2127,
      "authenti": 2128,
      "long": 2129,
      "build_": 2130,
      "vertices": 2131,
      "Sub": 2132,
      "NO": 2133,
      "_map": 2134,
      "data_type": 2135,
      "help": 2136,
      "\"):": 2137,
      "mu": 2138,
      "targets": 2139,
      "rid": 2140,
      "indent": 2141,
      "libr": 2142,
      "Auth": 2143,
      "b_": 2144,
      "quo": 2145,
      "Hand": 2146,
      "dist": 2147,
      "contains": 2148,
      "bl": 2149,
      "sin": 2150,
      "dered": 2151,
      "redenti": 2152,
      "__name__": 2153,
      "suf": 2154,
      "classes": 2155,
      "children": 2156,
      "ha": 2157,
      "for_": 2158,
      "represen": 2159,
      "protocol": 2160,
      "send_": 2161,
      "Stat": 2162,
      "sv": 2163,
      "Note": 2164,
      "'-": 2165,
      "]))": 2166,
      "atures": 2167,
      "uplic": 2168,
      "argv": 2169,
      "such": 2170,
      "pix": 2171,
      "cro": 2172,
      "alg": 2173,
      "ard_": 2174,
      "_ids": 2175,
      "fp": 2176,
      "error_": 2177,
      "iterable": 2178,
      "category": 2179,
      "resp": 2180,
      "abo": 2181,
      "']:": 2182,
      "safe": 2183,
      "40": 2184,
      "eval": 2185,
      "wer": 2186,
      "Ver": 2187,
      "either": 2188,
      "unt": 2189,
      "ends": 2190,
      "socket": 2191,
      "complete": 2192,
      "decor": 2193,
      "ive": 2194,
      "ank": 2195,
      "ateg": 2196,
      "own": 2197,
      "partition": 2198,
      "gre": 2199,
      "iz": 2200,
      "desc": 2201,
      "and_": 2202,
      "exit": 2203,
      "maximum": 2204,
      "second": 2205,
      "they": 2206,
      "defaults": 2207,
      "cy": 2208,
      "HE": 2209,
      "_length": 2210,
      "tach": 2211,
      "query_": 2212,
      "ugh": 2213,
      "clean": 2214,
      "TION": 2215,
      "jav": 2216,
      "r_": 2217,
      "_cache": 2218,
      "prop": 2219,
      "Info": 2220,
      "stats": 2221,
      "role": 2222,
      "variables": 2223,
      "public": 2224,
      "report": 2225,
      "object_": 2226,
      "ources": 2227,
      "Service": 2228,
      "lu": 2229,
      "represent": 2230,
      "_format": 2231,
      "patch": 2232,
      "pandas": 2233,
      "As": 2234,
      "Task": 2235,
      "sq": 2236,
      "_types": 2237,
      "src": 2238,
      "\"%": 2239,
      "control": 2240,
      "integer": 2241,
      "``.": 2242,
      "15": 2243,
      "peri": 2244,
      "Ac": 2245,
      "Per": 2246,
      "fn": 2247,
      "possible": 2248,
      "running": 2249,
      "ination": 2250,
      "metry": 2251,
      "kernel": 2252,
      "id_": 2253,
      "Store": 2254,
      "correspon": 2255,
      "ef": 2256,
      "separ": 2257,
      "Respon": 2258,
      "ry": 2259,
      "high": 2260,
      "60": 2261,
      "jar": 2262,
      "ner": 2263,
      "ord_": 2264,
      "super": 2265,
      "encies": 2266,
      "indices": 2267,
      "Cal": 2268,
      "their": 2269,
      "parent_": 2270,
      "execut": 2271,
      "radi": 2272,
      "sist": 2273,
      "_create": 2274,
      "_count": 2275,
      "sity": 2276,
      "take": 2277,
      "cannot": 2278,
      "GER": 2279,
      "hist": 2280,
      "simp": 2281,
      "_read_": 2282,
      "transaction": 2283,
      "Pre": 2284,
      "opts": 2285,
      "Trans": 2286,
      "methods": 2287,
      "segment": 2288,
      "trieve": 2289,
      "river": 2290,
      "interface": 2291,
      "distribu": 2292,
      "click": 2293,
      "oci": 2294,
      "bounds": 2295,
      "alph": 2296,
      "sli": 2297,
      "_number": 2298,
      "fer": 2299,
      "ide": 2300,
      "sym": 2301,
      "l_": 2302,
      "TR": 2303,
      "attemp": 2304,
      "ash": 2305,
      "user_": 2306,
      "write_": 2307,
      "score": 2308,
      "edges": 2309,
      "hex": 2310,
      "bot": 2311,
      "cluster": 2312,
      "Process": 2313,
      "handl": 2314,
      "topic": 2315,
      "git": 2316,
      "neigh": 2317,
      "red_": 2318,
      "prec": 2319,
      "expected": 2320,
      "Com": 2321,
      "LI": 2322,
      "mut": 2323,
      "specify": 2324,
      "wrapper": 2325,
      "(**": 2326,
      "Image": 2327,
      "poly": 2328,
      "acti": 2329,
      "Log": 2330,
      "pixel": 2331,
      "until": 2332,
      "ater": 2333,
      "Response": 2334,
      "Client": 2335,
      "make_": 2336,
      "stdout": 2337,
      "suffix": 2338,
      "Open": 2339,
      "buf": 2340,
      "ared": 2341,
      "========": 2342,
      "stead": 2343,
      "txt": 2344,
      "expr": 2345,
      "pairs": 2346,
      "ular": 2347,
      "profile": 2348,
      "publish": 2349,
      "mod": 2350,
      "\"],": 2351,
      "Use": 2352,
      "as_": 2353,
      "vate": 2354,
      "flag": 2355,
      "car": 2356,
      "ferent": 2357,
      ".\"": 2358,
      "Date": 2359,
      "pd": 2360,
      "'][": 2361,
      "comment": 2362,
      "plat": 2363,
      "LOGGER": 2364,
      "NAME": 2365,
      "Convert": 2366,
      "{\"": 2367,
      "tools": 2368,
      "stder": 2369,
      "serv": 2370,
      "validate": 2371,
      "bundle": 2372,
      "stra": 2373,
      "sive": 2374,
      "application": 2375,
      "under": 2376,
      "Bo": 2377,
      "LA": 2378,
      "matches": 2379,
      "filters": 2380,
      "itude": 2381,
      "tor": 2382,
      "addres": 2383,
      "allowed": 2384,
      "trace": 2385,
      "relative": 2386,
      "boolean": 2387,
      "]['": 2388,
      "mount_": 2389,
      "Wor": 2390,
      "pore": 2391,
      "lyph": 2392,
      "filter_": 2393,
      "snap": 2394,
      "OP": 2395,
      "tails": 2396,
      "my": 2397,
      "because": 2398,
      "Parser": 2399,
      "card": 2400,
      "her": 2401,
      "]):": 2402,
      "eff": 2403,
      "adap": 2404,
      "threshold": 2405,
      "intern": 2406,
      "local_": 2407,
      "has_": 2408,
      "through": 2409,
      "memory": 2410,
      "global": 2411,
      "weight": 2412,
      "200": 2413,
      "Class": 2414,
      "library": 2415,
      "Wi": 2416,
      "dro": 2417,
      "cover": 2418,
      "content_": 2419,
      "parsed": 2420,
      "Connection": 2421,
      "note": 2422,
      "verbo": 2423,
      "Dis": 2424,
      "ont": 2425,
      "expi": 2426,
      "correct": 2427,
      "gra": 2428,
      "contents": 2429,
      "rg": 2430,
      ")),": 2431,
      "e_": 2432,
      "plo": 2433,
      "dataset": 2434,
      "associ": 2435,
      "log_": 2436,
      "plugin": 2437,
      "done": 2438,
      "ystem": 2439,
      "requ": 2440,
      "cast": 2441,
      "original": 2442,
      "stderr": 2443,
      "generate": 2444,
      "want": 2445,
      "cols": 2446,
      "different": 2447,
      "convert": 2448,
      "definition": 2449,
      "platform": 2450,
      "iv": 2451,
      "compute": 2452,
      "Analysis": 2453,
      "lap": 2454,
      "instead": 2455,
      "web": 2456,
      "worker": 2457,
      "loa": 2458,
      "ru": 2459,
      "execu": 2460,
      "QL": 2461,
      "reason": 2462,
      "within": 2463,
      "how": 2464,
      ".,": 2465,
      "Find": 2466,
      "dot": 2467,
      "next_": 2468,
      "appro": 2469,
      "environment": 2470,
      "term": 2471,
      "redu": 2472,
      "dependencies": 2473,
      "definitions": 2474,
      "sition": 2475,
      "ier": 2476,
      "lation": 2477,
      "sol": 2478,
      "ic_": 2479,
      "ango": 2480,
      "access_token": 2481,
      "Content": 2482,
      "_of_": 2483,
      "feature": 2484,
      "Load": 2485,
      "od_": 2486,
      "roll": 2487,
      "ical": 2488,
      "FAUL": 2489,
      "fname": 2490,
      "list_": 2491,
      "direction": 2492,
      "colors": 2493,
      "select": 2494,
      "=[": 2495,
      "Text": 2496,
      "meas": 2497,
      "without": 2498,
      "pn": 2499,
      "result_": 2500,
      "ports": 2501,
      "install": 2502,
      "iss": 2503,
      "dict_": 2504,
      "could": 2505,
      "wd": 2506,
      "ant_": 2507,
      "DEFAUL": 2508,
      "vity": 2509,
      "ER_": 2510,
      "weights": 2511,
      "every": 2512,
      "dec": 2513,
      "sume": 2514,
      "lookup": 2515,
      "inclu": 2516,
      "Inter": 2517,
      "coords": 2518,
      "ification": 2519,
      "pores": 2520,
      "Input": 2521,
      "_cur": 2522,
      "Arg": 2523,
      "Gro": 2524,
      "repo": 2525,
      "proces": 2526,
      "neg": 2527,
      "imen": 2528,
      "11": 2529,
      "_args": 2530,
      "tile": 2531,
      "normal": 2532,
      "dele": 2533,
      "unpack": 2534,
      "ferences": 2535,
      "raw_": 2536,
      "recur": 2537,
      "keep": 2538,
      "callable": 2539,
      "TA": 2540,
      "vals": 2541,
      "point_": 2542,
      "}\".": 2543,
      "ics": 2544,
      "Wh": 2545,
      "Y_": 2546,
      "s_name": 2547,
      "Iter": 2548,
      "und_": 2549,
      "mount_point": 2550,
      "she": 2551,
      "accep": 2552,
      "symbol": 2553,
      "Base": 2554,
      "registr": 2555,
      "pressure": 2556,
      "Star": 2557,
      "Format": 2558,
      "Cur": 2559,
      "He": 2560,
      "services": 2561,
      "neighb": 2562,
      "bro": 2563,
      "f_": 2564,
      "determin": 2565,
      "instances": 2566,
      "collection": 2567,
      ")[": 2568,
      "30": 2569,
      "Map": 2570,
      "vars": 2571,
      "iti": 2572,
      "geometry": 2573,
      "entifier": 2574,
      "encoded": 2575,
      "TH": 2576,
      "CP": 2577,
      "KE": 2578,
      "sm": 2579,
      "slot": 2580,
      "ters": 2581,
      "cp": 2582,
      "eded": 2583,
      "popul": 2584,
      "Model": 2585,
      "Group": 2586,
      "'{}": 2587,
      "DB": 2588,
      "band": 2589,
      "addition": 2590,
      "cla": 2591,
      "Reg": 2592,
      "emit": 2593,
      "being": 2594,
      "oriz": 2595,
      "AM": 2596,
      "gin": 2597,
      "Extra": 2598,
      "run_": 2599,
      "connected": 2600,
      "24": 2601,
      "Make": 2602,
      "Pi": 2603,
      "_to": 2604,
      "sim": 2605,
      "prob": 2606,
      "following": 2607,
      "eno": 2608,
      "tokens": 2609,
      "client_": 2610,
      "Element": 2611,
      "i_": 2612,
      "times": 2613,
      "ically": 2614,
      "representation": 2615,
      "let": 2616,
      "present": 2617,
      "condition": 2618,
      "fast": 2619,
      "ality": 2620,
      "record_": 2621,
      "_files": 2622,
      "samples": 2623,
      "\\\\": 2624,
      "Any": 2625,
      "hy": 2626,
      "backend": 2627,
      "commands": 2628,
      "exceptions": 2629,
      "serialize": 2630,
      "/{": 2631,
      "ES": 2632,
      "X_": 2633,
      "warn": 2634,
      "SO": 2635,
      "align": 2636,
      "named": 2637,
      "XX": 2638,
      "adj": 2639,
      "Remove": 2640,
      "POST": 2641,
      "FF": 2642,
      "gon": 2643,
      "annotation": 2644,
      "gu": 2645,
      "CH": 2646,
      "ases": 2647,
      "edi": 2648,
      "agg": 2649,
      "argin": 2650,
      "null": 2651,
      "_values": 2652,
      "gex": 2653,
      "TYPE": 2654,
      "utes": 2655,
      "esca": 2656,
      "modules": 2657,
      "Man": 2658,
      "fy": 2659,
      "MO": 2660,
      "aml": 2661,
      "with_": 2662,
      "normaliz": 2663,
      "US": 2664,
      "attach": 2665,
      "models": 2666,
      "cookie": 2667,
      "Tok": 2668,
      "credenti": 2669,
      "these": 2670,
      "loads": 2671,
      "method_": 2672,
      "words": 2673,
      "vr": 2674,
      "ancel": 2675,
      "cb": 2676,
      "compile": 2677,
      "Write": 2678,
      "Fun": 2679,
      "slo": 2680,
      "secret": 2681,
      "_len": 2682,
      "cm": 2683,
      "driver": 2684,
      "loaded": 2685,
      "issue": 2686,
      "Argument": 2687,
      "\"{": 2688,
      "_group": 2689,
      "ws": 2690,
      "ision": 2691,
      "notifi": 2692,
      "axes": 2693,
      "bits": 2694,
      "previous": 2695,
      "bas": 2696,
      "rp": 2697,
      "ene": 2698,
      "both": 2699,
      "marker": 2700,
      "since": 2701,
      "ences": 2702,
      "dev": 2703,
      "resources": 2704,
      "board": 2705,
      "root_": 2706,
      "()):": 2707,
      "common": 2708,
      "warnings": 2709,
      "ways": 2710,
      "sched": 2711,
      "}.": 2712,
      "reverse": 2713,
      "Runtime": 2714,
      "total_": 2715,
      "IC": 2716,
      "_source": 2717,
      "_client": 2718,
      "functions": 2719,
      "mand": 2720,
      "zure": 2721,
      "foo": 2722,
      "Len": 2723,
      "pmag": 2724,
      "uuid": 2725,
      "impor": 2726,
      "normalize": 2727,
      "doesn": 2728,
      "specimen": 2729,
      "ek": 2730,
      "Field": 2731,
      "_idx": 2732,
      "resolve": 2733,
      "DEFAULT_": 2734,
      "_m": 2735,
      "alt": 2736,
      "steps": 2737,
      "zeros": 2738,
      "L_": 2739,
      "sav": 2740,
      "olute": 2741,
      "cour": 2742,
      "orith": 2743,
      "absolute": 2744,
      "Ho": 2745,
      "_from_": 2746,
      "real": 2747,
      "parsed_": 2748,
      "_sub": 2749,
      "trig": 2750,
      "processing": 2751,
      "Var": 2752,
      "----------------": 2753,
      "closed": 2754,
      "fully": 2755,
      "Out": 2756,
      "ings": 2757,
      "plt": 2758,
      "visi": 2759,
      "\"])": 2760,
      "sep": 2761,
      "retry": 2762,
      "tick": 2763,
      "clear": 2764,
      "requested": 2765,
      "simul": 2766,
      "finally": 2767,
      "corresponding": 2768,
      "duplic": 2769,
      "flat": 2770,
      "chain": 2771,
      "usage": 2772,
      "updated": 2773,
      "removed": 2774,
      "Calcul": 2775,
      "distribution": 2776,
      "verbose": 2777,
      ",)": 2778,
      "Sh": 2779,
      "date_time": 2780,
      "Example": 2781,
      "folder": 2782,
      "portal": 2783,
      "strict": 2784,
      "Line": 2785,
      "ented": 2786,
      "Unable": 2787,
      "oid": 2788,
      "provid": 2789,
      "(%": 2790,
      "_log": 2791,
      "_Get": 2792,
      "ving": 2793,
      "most": 2794,
      "opti": 2795,
      "fact": 2796,
      "equal": 2797,
      "Query": 2798,
      "OS": 2799,
      "ia": 2800,
      "voc": 2801,
      "_ref": 2802,
      "process_": 2803,
      "occur": 2804,
      "links": 2805,
      "19": 2806,
      "So": 2807,
      "ick": 2808,
      "uses": 2809,
      "basename": 2810,
      "import_": 2811,
      "Api": 2812,
      "PUT": 2813,
      "Exec": 2814,
      "signal": 2815,
      "STR": 2816,
      "\"\\": 2817,
      "instr": 2818,
      "coordinates": 2819,
      "enabled": 2820,
      "dete": 2821,
      "-----": 2822,
      "sour": 2823,
      "register": 2824,
      "Only": 2825,
      "50": 2826,
      "stage": 2827,
      "tered": 2828,
      "about": 2829,
      "sources": 2830,
      "_t": 2831,
      "fra": 2832,
      "ories": 2833,
      "jobs": 2834,
      "=(": 2835,
      "Tri": 2836,
      "_logger": 2837,
      "vol": 2838,
      "ents": 2839,
      "angles": 2840,
      "changes": 2841,
      "theta": 2842,
      "cked": 2843,
      "cn": 2844,
      "arning": 2845,
      "Page": 2846,
      "formed": 2847,
      "args_": 2848,
      "tax": 2849,
      "``,": 2850,
      "audi": 2851,
      "source_": 2852,
      "identifi": 2853,
      "future": 2854,
      "details": 2855,
      "{})": 2856,
      "features": 2857,
      "Result": 2858,
      "tom": 2859,
      "feed": 2860,
      "slice": 2861,
      "account_": 2862,
      "workspace": 2863,
      "minimum": 2864,
      "_callback": 2865,
      "decorator": 2866,
      "Work": 2867,
      "Token": 2868,
      "CON": 2869,
      "gress": 2870,
      "vertex": 2871,
      "line_": 2872,
      "Entry": 2873,
      "relation": 2874,
      "Gi": 2875,
      "cry": 2876,
      "destination": 2877,
      "v2": 2878,
      "subprocess": 2879,
      "allet": 2880,
      "registe": 2881,
      "extrac": 2882,
      "Proper": 2883,
      "indicate": 2884,
      "days": 2885,
      "class__": 2886,
      "RuntimeError": 2887,
      "Clo": 2888,
      "yaml": 2889,
      "specification": 2890,
      "Other": 2891,
      "UID": 2892,
      "rv": 2893,
      "overri": 2894,
      "mast": 2895,
      "cu": 2896,
      "andid": 2897,
      "paces": 2898,
      "bility": 2899,
      "II": 2900,
      "_options": 2901,
      "consum": 2902,
      "power": 2903,
      "per_": 2904,
      "Syn": 2905,
      "lug": 2906,
      "static": 2907,
      "AttributeError": 2908,
      "associated": 2909,
      "Fil": 2910,
      "tch": 2911,
      "decl": 2912,
      "leg": 2913,
      "file_object": 2914,
      "changed": 2915,
      "remove_": 2916,
      "center": 2917,
      "RF": 2918,
      "fmt": 2919,
      "lex": 2920,
      "dataframe": 2921,
      "status_code": 2922,
      "Window": 2923,
      "_func": 2924,
      "mc": 2925,
      "repr": 2926,
      "matching": 2927,
      "GET": 2928,
      "wire": 2929,
      "('\\": 2930,
      "58": 2931,
      "frequ": 2932,
      "s_to_": 2933,
      "__class__": 2934,
      "blocks": 2935,
      "antity": 2936,
      "release": 2937,
      "amo": 2938,
      "_inter": 2939,
      "stored": 2940,
      "dumps": 2941,
      "escape": 2942,
      "/%": 2943,
      "ensure": 2944,
      "interval": 2945,
      ">`": 2946,
      "From": 2947,
      "your": 2948,
      "ily": 2949,
      "Block": 2950,
      "Net": 2951,
      "dn": 2952,
      "glyph": 2953,
      "entry_": 2954,
      "implement": 2955,
      "generate_": 2956,
      "orithm": 2957,
      "Post": 2958,
      "_context": 2959,
      "ww": 2960,
      "predi": 2961,
      "hour": 2962,
      "_start": 2963,
      "desi": 2964,
      "what": 2965,
      "ded_": 2966,
      "PC": 2967,
      "dat": 2968,
      "bind": 2969,
      "eg": 2970,
      "pick": 2971,
      "vectors": 2972,
      "ified": 2973,
      "six": 2974,
      "widget": 2975,
      "Server": 2976,
      "\"),": 2977,
      "(-": 2978,
      "polic": 2979,
      "Examples": 2980,
      "would": 2981,
      "Found": 2982,
      "props": 2983,
      "addr": 2984,
      "quote": 2985,
      "All": 2986,
      "flu": 2987,
      "insert": 2988,
      "permissions": 2989,
      "internal": 2990,
      "Lay": 2991,
      "Tab": 2992,
      "mid": 2993,
      "sert_": 2994,
      "shell": 2995,
      "print_": 2996,
      "_frame": 2997,
      "tasks": 2998,
      "effect": 2999,
      "CT": 3000,
      "_x": 3001,
      "fici": 3002,
      "FO": 3003,
      "_set": 3004,
      "()))": 3005,
      "array_": 3006,
      "adding": 3007,
      "validator": 3008,
      "generated": 3009,
      "Uni": 3010,
      "private": 3011,
      "polygon": 3012,
      "rate": 3013,
      "ped_": 3014,
      "ship": 3015,
      "ground": 3016,
      "END": 3017,
      "segments": 3018,
      "18": 3019,
      "needed": 3020,
      "Defaults": 3021,
      "alpha": 3022,
      "\"))": 3023,
      "HO": 3024,
      "submission": 3025,
      "Code": 3026,
      "archive": 3027,
      "first_": 3028,
      "IOError": 3029,
      "course": 3030,
      "K_": 3031,
      "zh": 3032,
      "week": 3033,
      "Notes": 3034,
      "download": 3035,
      "########": 3036,
      "mes": 3037,
      "render": 3038,
      "vely": 3039,
      "Send": 3040,
      "cam": 3041,
      "sis_": 3042,
      "means": 3043,
      "vm": 3044,
      "verage": 3045,
      "INT": 3046,
      "Stream": 3047,
      "radius": 3048,
      "served": 3049,
      "proble": 3050,
      "calls": 3051,
      "aries": 3052,
      "constru": 3053,
      "necess": 3054,
      "helper": 3055,
      "initial": 3056,
      "too": 3057,
      "ctype": 3058,
      "bucke": 3059,
      "Given": 3060,
      "Des": 3061,
      "numbers": 3062,
      "Status": 3063,
      "'}": 3064,
      "EL": 3065,
      "IT": 3066,
      "Mod": 3067,
      "draw": 3068,
      "short": 3069,
      "use_": 3070,
      "analysis_": 3071,
      "cular": 3072,
      "ority": 3073,
      "Wid": 3074,
      "asci": 3075,
      "observ": 3076,
      "('-": 3077,
      "amount": 3078,
      "rc": 3079,
      "vision": 3080,
      "ured": 3081,
      "signed": 3082,
      "modified": 3083,
      "Failed": 3084,
      "ability": 3085,
      "[(": 3086,
      "k_": 3087,
      "union": 3088,
      "ssl": 3089,
      "appli": 3090,
      "tempor": 3091,
      "Ordered": 3092,
      "Length": 3093,
      "_request": 3094,
      "ually": 3095,
      "linear": 3096,
      "ternal": 3097,
      "[:-": 3098,
      "inputs": 3099,
      "Medi": 3100,
      "]),": 3101,
      "pt_": 3102,
      "were": 3103,
      "imal": 3104,
      "failure": 3105,
      "an_": 3106,
      "states": 3107,
      "atio": 3108,
      "characters": 3109,
      "99": 3110,
      "Tra": 3111,
      "ape": 3112,
      "compati": 3113,
      "optimi": 3114,
      "registered": 3115,
      "Table": 3116,
      "Tag": 3117,
      "jid": 3118,
      "lar": 3119,
      "tic": 3120,
      "opt": 3121,
      "encry": 3122,
      "constra": 3123,
      "Azure": 3124,
      "ME_": 3125,
      "export": 3126,
      "samp": 3127,
      "round": 3128,
      "pars": 3129,
      "percent": 3130,
      "py2": 3131,
      "Unknown": 3132,
      "support": 3133,
      "voice": 3134,
      "Import": 3135,
      "standard": 3136,
      "XML": 3137,
      "always": 3138,
      "sort_": 3139,
      "product": 3140,
      "Row": 3141,
      "fd": 3142,
      "ling": 3143,
      "direc": 3144,
      "measure": 3145,
      "(:": 3146,
      "ds_": 3147,
      "thub": 3148,
      "iso": 3149,
      "Record": 3150,
      "lineno": 3151,
      "Address": 3152,
      "Version": 3153,
      "_from": 3154,
      "anz": 3155,
      "{},": 3156,
      "interpre": 3157,
      "bs": 3158,
      "bad": 3159,
      "ended": 3160,
      "sur": 3161,
      "solution": 3162,
      "idden": 3163,
      "freq": 3164,
      "('%": 3165,
      "raised": 3166,
      "interpo": 3167,
      "handlers": 3168,
      "When": 3169,
      "Le": 3170,
      "older": 3171,
      "packet": 3172,
      "via": 3173,
      "manage": 3174,
      "operator": 3175,
      "Whe": 3176,
      "ection": 3177,
      "port_": 3178,
      "gn": 3179,
      "_indi": 3180,
      "Device": 3181,
      "summary": 3182,
      "reduce": 3183,
      "lists": 3184,
      "Creates": 3185,
      "period": 3186,
      "_S": 3187,
      "spe": 3188,
      "stud": 3189,
      "filepath": 3190,
      "wait_": 3191,
      "1000": 3192,
      "Warning": 3193,
      "lite": 3194,
      "Remo": 3195,
      "qual": 3196,
      "specs": 3197,
      "overlap": 3198,
      "necessary": 3199,
      "QU": 3200,
      "Tar": 3201,
      "key_": 3202,
      "bucket": 3203,
      "istics": 3204,
      "users": 3205,
      "disk": 3206,
      "sheet": 3207,
      "Start": 3208,
      "'')": 3209,
      "allow_": 3210,
      ".'": 3211,
      "EX": 3212,
      "inc": 3213,
      "file_path": 3214,
      "shot": 3215,
      "dirname": 3216,
      "execution": 3217,
      "regex": 3218,
      "rot": 3219,
      "push": 3220,
      "cated": 3221,
      "echo": 3222,
      "mas": 3223,
      "many": 3224,
      "configure": 3225,
      "_a": 3226,
      "nan": 3227,
      "tificate": 3228,
      "retrieve": 3229,
      "reads": 3230,
      "table_": 3231,
      "members": 3232,
      "endswith": 3233,
      "Mar": 3234,
      "[[": 3235,
      "arrays": 3236,
      "dirs": 3237,
      "v_grid": 3238,
      "evalu": 3239,
      "those": 3240,
      "sub_": 3241,
      "ATE": 3242,
      "oom": 3243,
      "eng": 3244,
      "lect": 3245,
      "ged": 3246,
      "images": 3247,
      "ATI": 3248,
      "With": 3249,
      "Function": 3250,
      "Bad": 3251,
      "candid": 3252,
      "''.": 3253,
      "Meth": 3254,
      "Be": 3255,
      "ka": 3256,
      "locations": 3257,
      "BU": 3258,
      "(\"%": 3259,
      "(\"\\": 3260,
      "codes": 3261,
      "representing": 3262,
      "attempt": 3263,
      "Filter": 3264,
      "lint": 3265,
      "remain": 3266,
      "img": 3267,
      "task_": 3268,
      "extract": 3269,
      "algorithm": 3270,
      "teria": 3271,
      "patterns": 3272,
      "SP": 3273,
      "cached": 3274,
      "DataArray": 3275,
      "\"/": 3276,
      "paren": 3277,
      "entities": 3278,
      "timezone": 3279,
      "plied": 3280,
      "frag": 3281,
      "nam": 3282,
      "Change": 3283,
      "Color": 3284,
      "plot_": 3285,
      "FOR": 3286,
      "UP": 3287,
      "ness": 3288,
      "xmp": 3289,
      "dfv": 3290,
      "Whether": 3291,
      "Can": 3292,
      "well": 3293,
      "eric": 3294,
      "resolution": 3295,
      "Sets": 3296,
      "Point": 3297,
      "rgb": 3298,
      "frequency": 3299,
      "ite": 3300,
      "ware": 3301,
      "deep": 3302,
      "rout": 3303,
      "accord": 3304,
      "span": 3305,
      "_paths": 3306,
      "licit": 3307,
      "selected": 3308,
      "cfg": 3309,
      "ascii": 3310,
      "channels": 3311,
      "Compute": 3312,
      "\"{}": 3313,
      "fini": 3314,
      "pad": 3315,
      "tz": 3316,
      "starting": 3317,
      "alization": 3318,
      "plugins": 3319,
      "dr": 3320,
      "rou": 3321,
      "pose": 3322,
      "ENT": 3323,
      "owner": 3324,
      "ones": 3325,
      "best": 3326,
      "login": 3327,
      "validate_": 3328,
      "header_": 3329,
      "App": 3330,
      "der_": 3331,
      "leep": 3332,
      "leader": 3333,
      "ated_": 3334,
      "Values": 3335,
      "above": 3336,
      "aggreg": 3337,
      "_params": 3338,
      "emb": 3339,
      "once": 3340,
      "noti": 3341,
      "github": 3342,
      "assigned": 3343,
      "lemented": 3344,
      "Otherwise": 3345,
      "pin": 3346,
      "v20": 3347,
      "init": 3348,
      "sted": 3349,
      "admin": 3350,
      "cach": 3351,
      "AA": 3352,
      "Vi": 3353,
      "pants": 3354,
      "sche": 3355,
      "wal": 3356,
      "program": 3357,
      "adapter": 3358,
      "13": 3359,
      "witch": 3360,
      "model_": 3361,
      "Method": 3362,
      "/',": 3363,
      "zoom": 3364,
      "icro": 3365,
      "__dict_": 3366,
      "Generate": 3367,
      ",,": 3368,
      "Temp": 3369,
      "_response": 3370,
      "mt_": 3371,
      "ift": 3372,
      "upload": 3373,
      "rule": 3374,
      "le_": 3375,
      "hostname": 3376,
      "coordinate": 3377,
      "child_": 3378,
      "begin": 3379,
      "perform": 3380,
      "identity": 3381,
      "ParseError": 3382,
      "ices": 3383,
      "fixed": 3384,
      "ttl": 3385,
      "according": 3386,
      "Dec": 3387,
      "_check": 3388,
      "_uri": 3389,
      "another": 3390,
      "_samples": 3391,
      "grid_": 3392,
      "unknown": 3393,
      "directly": 3394,
      "\"'": 3395,
      "know": 3396,
      "do_": 3397,
      "__dict__": 3398,
      "bus": 3399,
      "phone": 3400,
      "Stru": 3401,
      "vrf": 3402,
      "DF": 3403,
      "average": 3404,
      "alled": 3405,
      "cope": 3406,
      "digest": 3407,
      "pylint": 3408,
      "character": 3409,
      "</": 3410,
      "conta": 3411,
      "compres": 3412,
      "received": 3413,
      "authentication": 3414,
      "cross": 3415,
      "Struct": 3416,
      "You": 3417,
      "_pre": 3418,
      "_by": 3419,
      "inger": 3420,
      "catalog": 3421,
      "Manager": 3422,
      "14": 3423,
      "IL": 3424,
      "delim": 3425,
      "combin": 3426,
      "ous_": 3427,
      "reshape": 3428,
      "false": 3429,
      "reset": 3430,
      "init_": 3431,
      "priority": 3432,
      "supplied": 3433,
      "astype": 3434,
      "SCR": 3435,
      "predicate": 3436,
      "33": 3437,
      "Size": 3438,
      "_IN": 3439,
      "room": 3440,
      "chron": 3441,
      "parsing": 3442,
      "ked_": 3443,
      "overwrite": 3444,
      "-=": 3445,
      "Lab": 3446,
      "_keys": 3447,
      "cancel": 3448,
      "ual_": 3449,
      "Reference": 3450,
      "tage": 3451,
      "selection": 3452,
      "ized": 3453,
      "actual": 3454,
      "subscription_id": 3455,
      "serialized": 3456,
      "formatted": 3457,
      "resolver": 3458,
      "xmpp": 3459,
      "22": 3460,
      ":%": 3461,
      "dst": 3462,
      "ument_": 3463,
      "filenames": 3464,
      "parsers": 3465,
      "price": 3466,
      "Handler": 3467,
      "desired": 3468,
      "array_like": 3469,
      "none": 3470,
      "context_": 3471,
      "py3": 3472,
      "sigma": 3473,
      "post_": 3474,
      "file_name": 3475,
      "_identifier": 3476,
      "_clo": 3477,
      "metabo": 3478,
      "analyses": 3479,
      "automat": 3480,
      "java": 3481,
      "Calculate": 3482,
      "_parse_": 3483,
      "font": 3484,
      "ib": 3485,
      "rele": 3486,
      "test_": 3487,
      "subscri": 3488,
      "geno": 3489,
      "transi": 3490,
      "ATION": 3491,
      "AS": 3492,
      "aio": 3493,
      "cc": 3494,
      "0000": 3495,
      "vocab": 3496,
      "OrderedDict": 3497,
      "Sup": 3498,
      "Sample": 3499,
      "ainst": 3500,
      "rank": 3501,
      "incre": 3502,
      "concat": 3503,
      "against": 3504,
      "dae": 3505,
      "global_": 3506,
      "additional": 3507,
      "Target": 3508,
      "dfvfs": 3509,
      "YY": 3510,
      "at_": 3511,
      "uring": 3512,
      "below": 3513,
      "country": 3514,
      "estim": 3515,
      "did": 3516,
      "vas": 3517,
      "delay": 3518,
      "pot": 3519,
      "word_": 3520,
      "effici": 3521,
      "neighbors": 3522,
      "gl": 3523,
      "tten": 3524,
      "currently": 3525,
      "v2010": 3526,
      "Range": 3527,
      "peak": 3528,
      "ately": 3529,
      "riend": 3530,
      "to_array": 3531,
      "tables": 3532,
      "account_sid": 3533,
      "zhmc": 3534,
      "View": 3535,
      "Ses": 3536,
      "Tree": 3537,
      "_out": 3538,
      "_object": 3539,
      "_label": 3540,
      "free": 3541,
      "copi": 3542,
      "virt": 3543,
      "sock": 3544,
      "metrics": 3545,
      "completion": 3546,
      "_add_": 3547,
      "logic": 3548,
      "OUT": 3549,
      "VAL": 3550,
      "_kwargs": 3551,
      "dx": 3552,
      "mx": 3553,
      "seen": 3554,
      "stanz": 3555,
      "Contain": 3556,
      "outputs": 3557,
      "partial": 3558,
      "bottom": 3559,
      "override": 3560,
      "Layer": 3561,
      "_indices": 3562,
      "_prefix": 3563,
      "ulti": 3564,
      "scan": 3565,
      "tuples": 3566,
      "extensions": 3567,
      "negative": 3568,
      "(['": 3569,
      "_error": 3570,
      "duration": 3571,
      "sleep": 3572,
      "lities": 3573,
      "light": 3574,
      "gradi": 3575,
      "AG": 3576,
      "LE_": 3577,
      "Sign": 3578,
      "cator": 3579,
      "ink": 3580,
      "etc": 3581,
      "message_": 3582,
      "iterator": 3583,
      "expand": 3584,
      "ategy": 3585,
      "KEY": 3586,
      "CE": 3587,
      "New": 3588,
      "_y": 3589,
      "_node": 3590,
      "cum": 3591,
      "sd": 3592,
      "along": 3593,
      "sites": 3594,
      "ip_": 3595,
      "variants": 3596,
      "Series": 3597,
      "Command": 3598,
      ":-": 3599,
      "lour": 3600,
      "gene": 3601,
      "ward": 3602,
      "Also": 3603,
      "Descri": 3604,
      "[])": 3605,
      "_un": 3606,
      "fall": 3607,
      "gy": 3608,
      "}'": 3609,
      "ilar": 3610,
      "Initi": 3611,
      "gits": 3612,
      "posit": 3613,
      "project_": 3614,
      "Session": 3615,
      "}:": 3616,
      "station": 3617,
      "descri": 3618,
      "maj": 3619,
      "256": 3620,
      "Vari": 3621,
      "Network": 3622,
      "Ab": 3623,
      "Multi": 3624,
      "seed": 3625,
      "inary": 3626,
      "least": 3627,
      "written": 3628,
      "EventData": 3629,
      "ignored": 3630,
      "field_name": 3631,
      "Handle": 3632,
      "SCRIP": 3633,
      "ctories": 3634,
      "user_id": 3635,
      "classpath": 3636,
      "avoid": 3637,
      "page_size": 3638,
      "media": 3639,
      "inspect": 3640,
      "02": 3641,
      "cing": 3642,
      "figure": 3643,
      "_fla": 3644,
      "docs": 3645,
      "choice": 3646,
      "dump": 3647,
      "zhmcclient": 3648,
      "Pr": 3649,
      "Source": 3650,
      "_l": 3651,
      "cted_": 3652,
      "got": 3653,
      "verify": 3654,
      "compo": 3655,
      "Ge": 3656,
      "Qt": 3657,
      "lection": 3658,
      "alized": 3659,
      "credentials": 3660,
      "riendly": 3661,
      "({'": 3662,
      "90": 3663,
      "_for": 3664,
      "STAT": 3665,
      "packages": 3666,
      "SION": 3667,
      "Pa": 3668,
      "Que": 3669,
      "orted": 3670,
      "lack": 3671,
      "order_": 3672,
      "_input": 3673,
      "normals": 3674,
      "categories": 3675,
      "receiver": 3676,
      "history": 3677,
      "activity": 3678,
      "audio": 3679,
      "AST": 3680,
      "_system": 3681,
      "Timeout": 3682,
      "sync": 3683,
      "builder": 3684,
      "DateTime": 3685,
      "registry": 3686,
      "Windows": 3687,
      "aioxmpp": 3688,
      "_obj": 3689,
      "_text": 3690,
      "_fields": 3691,
      "sw": 3692,
      "uple": 3693,
      "progress": 3694,
      "connections": 3695,
      "plotlib": 3696,
      "mater": 3697,
      "tau": 3698,
      "versions": 3699,
      "ATH": 3700,
      "grade": 3701,
      "Property": 3702,
      "yet": 3703,
      "proxy": 3704,
      "directories": 3705,
      "chunks": 3706,
      "GraphQL": 3707,
      "adjac": 3708,
      "'',": 3709,
      "System": 3710,
      "_df": 3711,
      "ton": 3712,
      "win": 3713,
      "tical": 3714,
      "shots": 3715,
      "precision": 3716,
      "Access": 3717,
      "M_": 3718,
      "fg": 3719,
      "ki": 3720,
      "pc": 3721,
      "rs": 3722,
      "obs": 3723,
      "vec": 3724,
      "ough": 3725,
      "latest": 3726,
      "TIME_": 3727,
      "addresses": 3728,
      "problem": 3729,
      "DS": 3730,
      "OK": 3731,
      "]],": 3732,
      "_hash": 3733,
      "dj": 3734,
      "reach": 3735,
      "valu": 3736,
      "Produce": 3737,
      "asyncio": 3738,
      "rules": 3739,
      "population": 3740,
      "roles": 3741,
      "typ": 3742,
      "div": 3743,
      "_sum": 3744,
      "subject": 3745,
      "transport": 3746,
      "difference": 3747,
      "Arguments": 3748,
      "notification": 3749,
      "'#": 3750,
      "<<": 3751,
      "Cannot": 3752,
      "VER": 3753,
      "cen": 3754,
      "pts": 3755,
      "coder": 3756,
      "assume": 3757,
      "Options": 3758,
      "Queue": 3759,
      "_matrix": 3760,
      "ogram": 3761,
      "pixels": 3762,
      "01": 3763,
      "mapre": 3764,
      "dependency": 3765,
      "mapreduce": 3766,
      "_set_": 3767,
      "sec": 3768,
      "design": 3769,
      "ables": 3770,
      "Coun": 3771,
      "export_": 3772,
      "finish": 3773,
      "sections": 3774,
      "drop": 3775,
      "fmt_": 3776,
      "ced": 3777,
      "conn": 3778,
      "datasets": 3779,
      "ending": 3780,
      "kwargs_": 3781,
      "number_of": 3782,
      "Delete": 3783,
      "requires": 3784,
      "ridge": 3785,
      "executor": 3786,
      "EC": 3787,
      "_is_": 3788,
      "ep_": 3789,
      "tty": 3790,
      "wx": 3791,
      "mac": 3792,
      "jobStore": 3793,
      "plane": 3794,
      "content_type": 3795,
      ".'.": 3796,
      "[],": 3797,
      "ufo": 3798,
      "liter": 3799,
      "ATA": 3800,
      "End": 3801,
      "collections": 3802,
      "throats": 3803,
      "PE_": 3804,
      "bed": 3805,
      "lan": 3806,
      "submit": 3807,
      "NotFound": 3808,
      "calculate": 3809,
      "periment": 3810,
      "*,": 3811,
      "_method": 3812,
      "during": 3813,
      "ilt": 3814,
      "subclass": 3815,
      "quired": 3816,
      "final": 3817,
      "mime": 3818,
      "installed": 3819,
      "needs": 3820,
      "master": 3821,
      "Max": 3822,
      "_B": 3823,
      "gers": 3824,
      "shut": 3825,
      "Inst": 3826,
      "unit_": 3827,
      "_reg": 3828,
      "extra_": 3829,
      "takes": 3830,
      "+-+-+-+-+-+-+-+-+-+-+-+-+-+-+-+-+": 3831,
      "Dir": 3832,
      "G_": 3833,
      "Pri": 3834,
      "ymbol": 3835,
      "rev": 3836,
      "era": 3837,
      "('/": 3838,
      "scene": 3839,
      "loci": 3840,
      "checks": 3841,
      "\"]:": 3842,
      "SET": 3843,
      "ght_": 3844,
      "embed": 3845,
      "17": 3846,
      "dl": 3847,
      "reat": 3848,
      "setdefault": 3849,
      "listen": 3850,
      "statement": 3851,
      "positions": 3852,
      "sequences": 3853,
      "pending": 3854,
      "separator": 3855,
      "Cache": 3856,
      "MB": 3857,
      "rb": 3858,
      "}/": 3859,
      "reen": 3860,
      "perm": 3861,
      "_score": 3862,
      "loader": 3863,
      "deriv": 3864,
      "=%": 3865,
      "still": 3866,
      "dian": 3867,
      "siz": 3868,
      "shared": 3869,
      "Parses": 3870,
      "Seri": 3871,
      "FILE": 3872,
      "Output": 3873,
      "Pub": 3874,
      "_col": 3875,
      "_result": 3876,
      "_base": 3877,
      "_process": 3878,
      "digits": 3879,
      "exclu": 3880,
      "Could": 3881,
      "Stor": 3882,
      "http_": 3883,
      "allel": 3884,
      "Validation": 3885,
      "temporary": 3886,
      "PRO": 3887,
      "Schema": 3888,
      "cir": 3889,
      "pb": 3890,
      "pare": 3891,
      "_schema": 3892,
      "phase": 3893,
      "Adds": 3894,
      "frames": 3895,
      "markup": 3896,
      "TYPE_": 3897,
      "deleted": 3898,
      "Su": 3899,
      "_message": 3900,
      "cti": 3901,
      "ratio": 3902,
      "tas": 3903,
      "compil": 3904,
      "_init_": 3905,
      "controll": 3906,
      "queryset": 3907,
      "particip": 3908,
      "_level": 3909,
      "ix": 3910,
      "colour": 3911,
      "chat": 3912,
      "enter": 3913,
      "built": 3914,
      "dispatch": 3915,
      "expan": 3916,
      "wheel": 3917,
      "fptr": 3918,
      "major": 3919,
      "Tuple": 3920,
      "oth": 3921,
      "}{": 3922,
      "return_": 3923,
      ")).": 3924,
      "\").": 3925,
      "transl": 3926,
      "service_sid": 3927,
      "abspath": 3928,
      "register_": 3929,
      "sqrt": 3930,
      "included": 3931,
      "similar": 3932,
      "policy": 3933,
      "pository": 3934,
      "Norm": 3935,
      "special": 3936,
      "quire": 3937,
      "inspe": 3938,
      "certain": 3939,
      "artifact": 3940,
      "precated": 3941,
      "engine": 3942,
      "1e": 3943,
      "Go": 3944,
      "RPC": 3945,
      "_v": 3946,
      "_range": 3947,
      "tg": 3948,
      "()[": 3949,
      "wild": 3950,
      "comments": 3951,
      "SCRIPTION": 3952,
      "hidden": 3953,
      "ls": 3954,
      "pal": 3955,
      "inf": 3956,
      "atom": 3957,
      "quad": 3958,
      "genes": 3959,
      "indexes": 3960,
      "calling": 3961,
      "plain": 3962,
      "encoded_": 3963,
      "boundary": 3964,
      "FORM": 3965,
      "*(": 3966,
      "cwd": 3967,
      "pg": 3968,
      "lean": 3969,
      "not_": 3970,
      "share": 3971,
      "variant": 3972,
      "Current": 3973,
      "determine": 3974,
      "saved": 3975,
      "Over": 3976,
      "_entry": 3977,
      "`)": 3978,
      "rho": 3979,
      "devices": 3980,
      "chars": 3981,
      "mix": 3982,
      "projection": 3983,
      "Box": 3984,
      "2D": 3985,
      "ele": 3986,
      "stu": 3987,
      "abort": 3988,
      "_syn": 3989,
      "prior": 3990,
      "mount": 3991,
      "customer": 3992,
      "abilities": 3993,
      "Storage": 3994,
      "'--": 3995,
      ".\",": 3996,
      "prox": 3997,
      "shard_": 3998,
      "_fn": 3999,
      "table_name": 4000,
      "appropri": 4001,
      "flatten": 4002,
      "95": 4003,
      "GB": 4004,
      "_get": 4005,
      "_msg": 4006,
      "na": 4007,
      "pst": 4008,
      "amily": 4009,
      "address_": 4010,
      "walk": 4011,
      "+-+-+-+-+-+-+-+-+-+-+-+-+-+-+-+-+-+-+-+-+-+-+-+-+-+-+-+-+-+-+-+-+": 4012,
      "implementation": 4013,
      "ctypes": 4014,
      "Mark": 4015,
      ":])": 4016,
      "might": 4017,
      "nor": 4018,
      "arange": 4019,
      "dims": 4020,
      "exact": 4021,
      "dou": 4022,
      "Union": 4023,
      "charset": 4024,
      "file_entry": 4025,
      "DESCRIPTION": 4026,
      "cript": 4027,
      "cryp": 4028,
      ".',": 4029,
      "wra": 4030,
      "rename": 4031,
      "song": 4032,
      "dynam": 4033,
      "layers": 4034,
      "HTML": 4035,
      "transcript": 4036,
      "FIX": 4037,
      "parents": 4038,
      "+)": 4039,
      "blob": 4040,
      "defer": 4041,
      "strategy": 4042,
      "Fetch": 4043,
      "Take": 4044,
      "_image": 4045,
      "references": 4046,
      "assert_": 4047,
      "nothing": 4048,
      "()]": 4049,
      "subst": 4050,
      "train": 4051,
      "runs": 4052,
      "author": 4053,
      "Mem": 4054,
      "constants": 4055,
      "Oper": 4056,
      "_offset": 4057,
      "p2": 4058,
      "repe": 4059,
      "anno": 4060,
      "consist": 4061,
      "appen": 4062,
      "validation": 4063,
      "ERR": 4064,
      "split_": 4065,
      "magic": 4066,
      "storage_": 4067,
      ":`~.": 4068,
      "dimensions": 4069,
      "HEAD": 4070,
      "simple": 4071,
      "Regist": 4072,
      "04": 4073,
      "Retrieve": 4074,
      "apping": 4075,
      "updates": 4076,
      "Dataset": 4077,
      "RES": 4078,
      "annotations": 4079,
      "ferred": 4080,
      "Pipe": 4081,
      "surface": 4082,
      "Fir": 4083,
      "_i": 4084,
      "sl": 4085,
      "watch": 4086,
      "no_": 4087,
      "pag": 4088,
      "able_": 4089,
      "file_obj": 4090,
      "Look": 4091,
      "related": 4092,
      "magn": 4093,
      "processed": 4094,
      "recursive": 4095,
      "SQL": 4096,
      "sed_": 4097,
      "mpt": 4098,
      "threads": 4099,
      "router": 4100,
      "Stop": 4101,
      "screen": 4102,
      "allowed_": 4103,
      "voltage": 4104,
      "RFC": 4105,
      "Wrap": 4106,
      "squ": 4107,
      "pred": 4108,
      "_scope": 4109,
      "translate": 4110,
      "crete": 4111,
      "selector": 4112,
      "ather": 4113,
      "extract_": 4114,
      "Fe": 4115,
      "ZE": 4116,
      "switch": 4117,
      "translation": 4118,
      "Count": 4119,
      "layout": 4120,
      "portal_type": 4121,
      "automatically": 4122,
      "SU": 4123,
      "_lock": 4124,
      "_handle": 4125,
      "fc": 4126,
      "s_list": 4127,
      "used_": 4128,
      "mething": 4129,
      "valid_": 4130,
      "home": 4131,
      "calculated": 4132,
      "small": 4133,
      "Cop": 4134,
      "SD": 4135,
      "smo": 4136,
      "oft": 4137,
      "boot": 4138,
      "sci": 4139,
      "claim": 4140,
      "slots": 4141,
      "'<": 4142,
      "_or": 4143,
      "_width": 4144,
      "aff": 4145,
      "friendly": 4146,
      "}\\": 4147,
      "reco": 4148,
      "around": 4149,
      "abridge": 4150,
      "md5": 4151,
      "certificate": 4152,
      "\"-": 4153,
      "MV": 4154,
      "Mis": 4155,
      "_match": 4156,
      "cores": 4157,
      "experiment": 4158,
      "worksheet": 4159,
      "\"].": 4160,
      "Produ": 4161,
      "transition": 4162,
      "Quantity": 4163,
      "Unicode": 4164,
      "_manager": 4165,
      "ceed": 4166,
      "itor": 4167,
      "There": 4168,
      "Reader": 4169,
      "Validate": 4170,
      "javabridge": 4171,
      "Is": 4172,
      "_check_": 4173,
      "tango": 4174,
      "altern": 4175,
      "prev": 4176,
      "ights": 4177,
      "anchor": 4178,
      "choices": 4179,
      "pkg": 4180,
      "cached_": 4181,
      "Of": 4182,
      "mpty": 4183,
      "vers": 4184,
      "quality": 4185,
      "trigger": 4186,
      "Label": 4187,
      "material": 4188,
      "Must": 4189,
      "Wallet": 4190,
      "lit": 4191,
      "useful": 4192,
      "Determin": 4193,
      "explicit": 4194,
      "add_argument": 4195,
      "hashes": 4196,
      "potenti": 4197,
      "Description": 4198,
      "'\"": 4199,
      "C_": 4200,
      "_model": 4201,
      "gue": 4202,
      "happen": 4203,
      "my_": 4204,
      "zen": 4205,
      "{:": 4206,
      "Try": 4207,
      "background": 4208,
      "command_": 4209,
      "Search": 4210,
      "scalar": 4211,
      "Hel": 4212,
      "_output_": 4213,
      "css": 4214,
      "uint": 4215,
      "ann": 4216,
      "ifies": 4217,
      "immedi": 4218,
      "trieves": 4219,
      "scheme": 4220,
      "-%": 4221,
      "NS": 4222,
      "_e": 4223,
      "due": 4224,
      "lig": 4225,
      "adjust": 4226,
      "mach": 4227,
      "nested": 4228,
      "Registr": 4229,
      "backup": 4230,
      "intersection": 4231,
      "Setting": 4232,
      "cert": 4233,
      "maybe": 4234,
      "reply_": 4235,
      "basic": 4236,
      "MM": 4237,
      "hal": 4238,
      "mk": 4239,
      "sat": 4240,
      "ado": 4241,
      "best_": 4242,
      "triangles": 4243,
      "subset": 4244,
      "urls": 4245,
      "checkpoint": 4246,
      "cale": 4247,
      "_batch": 4248,
      "calculation": 4249,
      "previous_": 4250,
      "Pay": 4251,
      "_or_": 4252,
      "ring": 4253,
      "checked": 4254,
      "started": 4255,
      "forms": 4256,
      "caller": 4257,
      "limits": 4258,
      "Structure": 4259,
      "jw": 4260,
      "pint": 4261,
      "water": 4262,
      "inser": 4263,
      "groupby": 4264,
      "api_path": 4265,
      "post_data": 4266,
      "snapshot": 4267,
      "flush": 4268,
      "_results": 4269,
      "bg": 4270,
      "sem": 4271,
      "inside": 4272,
      "inverse": 4273,
      "diag": 4274,
      "quer": 4275,
      "person": 4276,
      "triangle": 4277,
      "scores": 4278,
      "energy": 4279,
      "density": 4280,
      "plit": 4281,
      "sparse": 4282,
      "connect_": 4283,
      "iterations": 4284,
      "particular": 4285,
      "brain": 4286,
      "greater": 4287,
      "accept": 4288,
      "appropriate": 4289,
      "AB": 4290,
      "_json": 4291,
      "actor": 4292,
      "v6": 4293,
      "isn": 4294,
      "top_": 4295,
      "uture": 4296,
      "umb": 4297,
      "listener": 4298,
      "(\"-": 4299,
      "_cat": 4300,
      "sentence": 4301,
      "modify": 4302,
      "Action": 4303,
      "TS": 4304,
      "men": 4305,
      "invo": 4306,
      "\"\",": 4307,
      "theme": 4308,
      "cker": 4309,
      "endpoint_": 4310,
      "node_": 4311,
      "agraph": 4312,
      "positive": 4313,
      "mit_": 4314,
      "requirements": 4315,
      "`:": 4316,
      "eig": 4317,
      "fac": 4318,
      "rl": 4319,
      "xarray": 4320,
      "}]": 4321,
      "inher": 4322,
      "codon": 4323,
      "format_": 4324,
      "trib": 4325,
      "works": 4326,
      "auto_": 4327,
      "script_": 4328,
      "transactions": 4329,
      "iteritems": 4330,
      "refs": 4331,
      "provide": 4332,
      "constant": 4333,
      "seek": 4334,
      "================": 4335,
      "shutdown": 4336,
      "Empty": 4337,
      "_filename": 4338,
      "_for_": 4339,
      "fh": 4340,
      "ture": 4341,
      "deprecated": 4342,
      "proc": 4343,
      "compare": 4344,
      "Construct": 4345,
      "Ext": 4346,
      "Does": 4347,
      "34": 4348,
      "float64": 4349,
      "authoriz": 4350,
      "provider": 4351,
      "Sk": 4352,
      "_k": 4353,
      "_max": 4354,
      "_filter": 4355,
      "gap": 4356,
      "pp": 4357,
      "}\"": 4358,
      "whose": 4359,
      "later": 4360,
      "bookmark": 4361,
      "hape": 4362,
      "broad": 4363,
      "LV": 4364,
      "_Parse": 4365,
      "bal": 4366,
      "rx": 4367,
      "lef": 4368,
      "s_path": 4369,
      "255": 4370,
      "optimiz": 4371,
      ".\\": 4372,
      "RGB": 4373,
      "Us": 4374,
      "WS": 4375,
      "_table": 4376,
      "mf": 4377,
      "pur": 4378,
      "endian": 4379,
      "asset": 4380,
      "sumed": 4381,
      "pyps": 4382,
      "lower_": 4383,
      "loading": 4384,
      "prin": 4385,
      "IDs": 4386,
      "operations": 4387,
      "complex": 4388,
      "(',": 4389,
      "Db": 4390,
      "HM": 4391,
      "_RE": 4392,
      "nes": 4393,
      "setattr": 4394,
      "outfile": 4395,
      "row_": 4396,
      "auth_": 4397,
      "server_": 4398,
      "locale": 4399,
      "schedul": 4400,
      "OSError": 4401,
      "applied": 4402,
      "constraints": 4403,
      "ERROR": 4404,
      "IF": 4405,
      "_1": 4406,
      "pip": 4407,
      "togen": 4408,
      "pex": 4409,
      "exchange": 4410,
      "Report": 4411,
      "creation": 4412,
      "Keyboard": 4413,
      "criteria": 4414,
      "exc_info": 4415,
      ".)": 4416,
      "Au": 4417,
      "MI": 4418,
      "ordered": 4419,
      "deg": 4420,
      "perc": 4421,
      "api_key": 4422,
      "placeh": 4423,
      "Sequ": 4424,
      "buffer_": 4425,
      "Extract": 4426,
      "delimiter": 4427,
      "chronous": 4428,
      "wind": 4429,
      "lead": 4430,
      "_so": 4431,
      "_input_": 4432,
      "fft": 4433,
      "generation": 4434,
      "service_": 4435,
      "alizes": 4436,
      "fails": 4437,
      "svc": 4438,
      "executable": 4439,
      "Ste": 4440,
      "_load": 4441,
      "_update": 4442,
      "bj": 4443,
      "unce": 4444,
      "matplotlib": 4445,
      "numeric": 4446,
      "Pool": 4447,
      "Order": 4448,
      "snapshots": 4449,
      "Container": 4450,
      "reply_markup": 4451,
      "\">": 4452,
      "Doc": 4453,
      "_ex": 4454,
      "_queue": 4455,
      "soft": 4456,
      "wb": 4457,
      "amma": 4458,
      "minutes": 4459,
      "matched": 4460,
      "relpath": 4461,
      "merged": 4462,
      "represents": 4463,
      "solver": 4464,
      "edit": 4465,
      "pickle": 4466,
      "magnitude": 4467,
      "Ali": 4468,
      "finger": 4469,
      "rr": 4470,
      "\"\")": 4471,
      "conven": 4472,
      "dataset_": 4473,
      "Retrieves": 4474,
      "mapper": 4475,
      "regular": 4476,
      "pages": 4477,
      "including": 4478,
      "MS": 4479,
      "SY": 4480,
      "_factor": 4481,
      "family": 4482,
      "deli": 4483,
      "working": 4484,
      "map_": 4485,
      "hasher": 4486,
      "Diction": 4487,
      "URI": 4488,
      "Channel": 4489,
      "query_hash": 4490,
      "Account": 4491,
      "Header": 4492,
      "TabPost": 4493,
      "stanza": 4494,
      "%(": 4495,
      "({})": 4496,
      "80": 4497,
      "Yield": 4498,
      "\\'": 4499,
      "big": 4500,
      "isfile": 4501,
      "something": 4502,
      "aliases": 4503,
      "namespaces": 4504,
      "Identifier": 4505,
      "src_": 4506,
      "delete_": 4507,
      "documentation": 4508,
      "consumer": 4509,
      "relev": 4510,
      "left_": 4511,
      "brow": 4512,
      "mv_grid": 4513,
      "lear": 4514,
      "_sp": 4515,
      "base_": 4516,
      "white": 4517,
      "docstring": 4518,
      "ategory": 4519,
      "activ": 4520,
      "Dictionary": 4521,
      "CL": 4522,
      "NE": 4523,
      "SER": 4524,
      "_array": 4525,
      "_session": 4526,
      "_mode": 4527,
      "ently": 4528,
      "pho": 4529,
      "base64": 4530,
      "mitogen": 4531,
      "video_id": 4532,
      "effe": 4533,
      "ConnectionError": 4534,
      "visible": 4535,
      "compressed": 4536,
      "Missing": 4537,
      "!')": 4538,
      "Min": 4539,
      "Please": 4540,
      "Plug": 4541,
      "nu": 4542,
      "serve": 4543,
      "file_type": 4544,
      "opj": 4545,
      "Web": 4546,
      "duplicate": 4547,
      "'*": 4548,
      "=',": 4549,
      "Pass": 4550,
      "made": 4551,
      "_cri": 4552,
      "compress": 4553,
      "Exp": 4554,
      "ranges": 4555,
      "Resource": 4556,
      "cating": 4557,
      "original_": 4558,
      "includes": 4559,
      "fastq": 4560,
      "machine": 4561,
      "ifier": 4562,
      "lip": 4563,
      "obs_": 4564,
      "_in_": 4565,
      "statistics": 4566,
      "\"][\"": 4567,
      "stdin": 4568,
      "csv": 4569,
      "mux": 4570,
      "PY": 4571,
      "b58": 4572,
      "jobject": 4573,
      "tun": 4574,
      "va": 4575,
      "unch": 4576,
      "itself": 4577,
      "endpoints": 4578,
      "group_": 4579,
      "interactions": 4580,
      "Protocol": 4581,
      "cmd_": 4582,
      "Payload": 4583,
      ":\\": 4584,
      "SH": 4585,
      "SK": 4586,
      "_field": 4587,
      "icon": 4588,
      "reactions": 4589,
      "ory_": 4590,
      "toil": 4591,
      "timeseries": 4592,
      "dicts": 4593,
      "resulting": 4594,
      "agent": 4595,
      "Configuration": 4596,
      "identifiers": 4597,
      "concaten": 4598,
      ")])": 4599,
      "3D": 4600,
      ":,": 4601,
      "VE": 4602,
      "Wa": 4603,
      "micro": 4604,
      "vs": 4605,
      "define": 4606,
      "Names": 4607,
      "stripe": 4608,
      "stract": 4609,
      "Mediator": 4610,
      "routing": 4611,
      "elem": 4612,
      "logs": 4613,
      "ette": 4614,
      "start_time": 4615,
      "hours": 4616,
      "notify": 4617,
      "DATA": 4618,
      "Match": 4619,
      "One": 4620,
      "XY": 4621,
      "iers": 4622,
      "rup": 4623,
      "tf": 4624,
      "tab": 4625,
      "wallet": 4626,
      "}}": 4627,
      "anis": 4628,
      "come": 4629,
      "applic": 4630,
      "dir_path": 4631,
      "allows": 4632,
      "confli": 4633,
      "successfully": 4634,
      "Callback": 4635,
      "branches": 4636,
      "cookies": 4637,
      "constructor": 4638,
      "27": 4639,
      "TER": 4640,
      "_handler": 4641,
      "bam": 4642,
      "bins": 4643,
      "retrie": 4644,
      "repository": 4645,
      "prote": 4646,
      "Recei": 4647,
      "_cmd": 4648,
      "recip": 4649,
      "---------": 4650,
      "-----------": 4651,
      "include_": 4652,
      "tests": 4653,
      "force_": 4654,
      "Control": 4655,
      "processes": 4656,
      "sizes": 4657,
      "1_": 4658,
      "ved_": 4659,
      "paragraph": 4660,
      "ump": 4661,
      "']))": 4662,
      "configured": 4663,
      "Exist": 4664,
      "wrapped": 4665,
      "indicates": 4666,
      "buckets": 4667,
      "student_": 4668,
      "_meta": 4669,
      "rm": 4670,
      "trun": 4671,
      "outine": 4672,
      "compar": 4673,
      "{}.": 4674,
      "module_name": 4675,
      "brid": 4676,
      "device_id": 4677,
      "SIZE": 4678,
      "initial_": 4679,
      "serializer": 4680,
      "Cloud": 4681,
      "compatibility": 4682,
      "virtual": 4683,
      "={": 4684,
      "_block": 4685,
      "tell": 4686,
      "ioloop": 4687,
      "remaining": 4688,
      "First": 4689,
      "queries": 4690,
      "35": 4691,
      "LD": 4692,
      "Shape": 4693,
      "cut": 4694,
      "coming": 4695,
      "writing": 4696,
      "Reads": 4697,
      "POINT": 4698,
      "xyz": 4699,
      "error_message": 4700,
      "fraction": 4701,
      "Module": 4702,
      "ImportError": 4703,
      "django": 4704,
      "65": 4705,
      "instru": 4706,
      "prompt": 4707,
      "Parti": 4708,
      "state_": 4709,
      "grad": 4710,
      "And": 4711,
      "select_": 4712,
      "orient": 4713,
      "completed": 4714,
      "roots": 4715,
      "sql": 4716,
      "expires": 4717,
      "guess": 4718,
      ")\"": 4719,
      "WOR": 4720,
      "dd": 4721,
      "geom": 4722,
      "sian": 4723,
      "path_spec": 4724,
      "shift": 4725,
      "final_": 4726,
      "issues": 4727,
      "deepcopy": 4728,
      "ValidationError": 4729,
      "inspector": 4730,
      "Sequence": 4731,
      "_read": 4732,
      "_function": 4733,
      "_header": 4734,
      "fl": 4735,
      "ij": 4736,
      "stick": 4737,
      "pear": 4738,
      "conv": 4739,
      "never": 4740,
      "actually": 4741,
      "face_": 4742,
      "critical": 4743,
      "center_": 4744,
      "bel": 4745,
      "mal": 4746,
      "cases": 4747,
      "='',": 4748,
      "AND": 4749,
      "Allow": 4750,
      "=['": 4751,
      "Lang": 4752,
      "Mat": 4753,
      "_2": 4754,
      "ctive": 4755,
      "{!": 4756,
      "memo": 4757,
      "t_name": 4758,
      "short_": 4759,
      "Dev": 4760,
      "aily": 4761,
      "IndexError": 4762,
      "cipher": 4763,
      "havi": 4764,
      "traceback": 4765,
      "instrument": 4766,
      "order_by": 4767,
      "friendly_name": 4768,
      "(\\": 4769,
      "23": 4770,
      "mq": 4771,
      "ind_": 4772,
      "communi": 4773,
      "var_": 4774,
      "converted": 4775,
      "receive": 4776,
      "parsed_data": 4777,
      "www": 4778,
      "Bundle": 4779,
      "Each": 4780,
      "Ps": 4781,
      "Vis": 4782,
      "_make": 4783,
      "_directory": 4784,
      "bon": 4785,
      "cov": 4786,
      "formatted_": 4787,
      "cept": 4788,
      "curren": 4789,
      "compu": 4790,
      "world": 4791,
      "alibr": 4792,
      "number_of_": 4793,
      "latitude": 4794,
      "callbacks": 4795,
      "ALL": 4796,
      "_CON": 4797,
      "ParserMediator": 4798,
      "large": 4799,
      "percentage": 4800,
      "scipy": 4801,
      "Language": 4802,
      "Sen": 4803,
      "_send_": 4804,
      "native": 4805,
      "redirect": 4806,
      "stro": 4807,
      "isdir": 4808,
      "assist": 4809,
      "expect": 4810,
      "initialize": 4811,
      "Implemented": 4812,
      "display_name": 4813,
      "P_": 4814,
      "WD": 4815,
      "]])": 4816,
      "king": 4817,
      "ln": 4818,
      "padding": 4819,
      "qs": 4820,
      "mets": 4821,
      "loss": 4822,
      "external": 4823,
      "sively": 4824,
      "right_": 4825,
      "','": 4826,
      "olds": 4827,
      "timedelta": 4828,
      "prediction": 4829,
      "container_": 4830,
      "search_": 4831,
      "nonzero": 4832,
      "cells": 4833,
      "ization": 4834,
      "square": 4835,
      "Copy": 4836,
      "kg": 4837,
      "Resol": 4838,
      "playlist": 4839,
      "Factory": 4840,
      "Permission": 4841,
      "normalized": 4842,
      "Sync": 4843,
      "Width": 4844,
      "direct_": 4845,
      "semble": 4846,
      "Vect": 4847,
      "Will": 4848,
      "hum": 4849,
      "px": 4850,
      "ym": 4851,
      "stants": 4852,
      "ensity": 4853,
      "ify_": 4854,
      "returning": 4855,
      "utc": 4856,
      "(':": 4857,
      "']]": 4858,
      "quantity": 4859,
      "formatter": 4860,
      "sense": 4861,
      "quival": 4862,
      "SIG": 4863,
      "double": 4864,
      "Usage": 4865,
      "Met": 4866,
      "_rec": 4867,
      "_parse": 4868,
      "cles": 4869,
      "nx": 4870,
      "pdf": 4871,
      "cha": 4872,
      "stric": 4873,
      "keep_": 4874,
      "ops": 4875,
      "accounts": 4876,
      "comput": 4877,
      "000": 4878,
      "primary": 4879,
      "rong": 4880,
      "Results": 4881,
      "TIME": 4882,
      "convert_": 4883,
      "Converts": 4884,
      "Display": 4885,
      "png": 4886,
      "Iterable": 4887,
      "={'": 4888,
      "Bit": 4889,
      "Loc": 4890,
      "cpu": 4891,
      "resid": 4892,
      "terms": 4893,
      "poll": 4894,
      "{}:": 4895,
      "classname": 4896,
      "------------": 4897,
      "INFO": 4898,
      "REQU": 4899,
      "waiting": 4900,
      "Obj": 4901,
      "batch_size": 4902,
      "secret_": 4903,
      "schedule": 4904,
      "(?": 4905,
      "Li": 4906,
      "gamma": 4907,
      "asc": 4908,
      "_cli": 4909,
      "working_": 4910,
      "alizer": 4911,
      "read_buffer": 4912,
      "dimensional": 4913,
      "bridge": 4914,
      "48": 4915,
      "PATH": 4916,
      "RA": 4917,
      "Tit": 4918,
      "ast_": 4919,
      "inst_": 4920,
      "rer": 4921,
      "heights": 4922,
      "oll": 4923,
      "pretty": 4924,
      "filtered": 4925,
      "whites": 4926,
      "jobGraph": 4927,
      "depending": 4928,
      "NOT": 4929,
      "Plot": 4930,
      "PAR": 4931,
      "RI": 4932,
      "WN": 4933,
      "_on": 4934,
      "_record": 4935,
      "dit": 4936,
      "Param": 4937,
      "ST_": 4938,
      "variance": 4939,
      "remote_": 4940,
      "attachment": 4941,
      "ticks": 4942,
      "encryp": 4943,
      "gradient": 4944,
      "recipi": 4945,
      ")}": 4946,
      "*.": 4947,
      "Git": 4948,
      "_line": 4949,
      "coding": 4950,
      "trim": 4951,
      "stats_": 4952,
      "_rel": 4953,
      "creating": 4954,
      "NotImplemented": 4955,
      "Column": 4956,
      "svg": 4957,
      "histogram": 4958,
      "genome": 4959,
      "Ax": 4960,
      "eas": 4961,
      "reports": 4962,
      "timer": 4963,
      "ressure": 4964,
      "neare": 4965,
      "behavi": 4966,
      "whole": 4967,
      "sence": 4968,
      "bases": 4969,
      "statements": 4970,
      "ency_": 4971,
      "levels": 4972,
      "dictionaries": 4973,
      "mediates": 4974,
      "resource_group": 4975,
      "Down": 4976,
      "Generator": 4977,
      "observation": 4978,
      "compatible": 4979,
      "candidate": 4980,
      "BO": 4981,
      "Glyph": 4982,
      "Lim": 4983,
      "Stri": 4984,
      "Word": 4985,
      "_end": 4986,
      "_date": 4987,
      "slug": 4988,
      "rever": 4989,
      "sts": 4990,
      "observed": 4991,
      "profil": 4992,
      "ipap": 4993,
      "workunit_": 4994,
      "Parameter": 4995,
      "Defini": 4996,
      "_device": 4997,
      "ENT_": 4998,
      "attribute_value": 4999
    },
    "merges": [
      [
        "s",
        "e"
      ],
      [
        "i",
        "n"
      ],
      [
        "r",
        "e"
      ],
      [
        "o",
        "n"
      ],
      [
        "a",
        "t"
      ],
      [
        "e",
        "r"
      ],
      [
        "o",
        "r"
      ],
      [
        "s",
        "t"
      ],
      [
        "t",
        "h"
      ],
      [
        "e",
        "n"
      ],
      [
        "a",
        "l"
      ],
      [
        "a",
        "r"
      ],
      [
        "d",
        "e"
      ],
      [
        "\"",
        "\""
      ],
      [
        "a",
        "n"
      ],
      [
        "m",
        "e"
      ],
      [
        "l",
        "e"
      ],
      [
        "t",
        "i"
      ],
      [
        "se",
        "l"
      ],
      [
        "sel",
        "f"
      ],
      [
        "u",
        "r"
      ],
      [
        "th",
        "e"
      ],
      [
        "c",
        "e"
      ],
      [
        "i",
        "f"
      ],
      [
        "i",
        "s"
      ],
      [
        "t",
        "e"
      ],
      [
        "g",
        "e"
      ],
      [
        "c",
        "o"
      ],
      [
        "r",
        "o"
      ],
      [
        "t",
        "o"
      ],
      [
        "-",
        "-"
      ],
      [
        "f",
        "i"
      ],
      [
        "a",
        "me"
      ],
      [
        "\"\"",
        "\""
      ],
      [
        "u",
        "e"
      ],
      [
        "in",
        "g"
      ],
      [
        ")",
        ":"
      ],
      [
        "p",
        "e"
      ],
      [
        "f",
        "or"
      ],
      [
        "l",
        "o"
      ],
      [
        "t",
        "ur"
      ],
      [
        "tur",
        "n"
      ],
      [
        "a",
        "s"
      ],
      [
        "t",
        "_"
      ],
      [
        "c",
        "h"
      ],
      [
        "ti",
        "on"
      ],
      [
        "u",
        "n"
      ],
      [
        "at",
        "e"
      ],
      [
        "i",
        "d"
      ],
      [
        "l",
        "i"
      ],
      [
        "c",
        "t"
      ],
      [
        "a",
        "d"
      ],
      [
        "re",
        "turn"
      ],
      [
        "n",
        "o"
      ],
      [
        "de",
        "f"
      ],
      [
        "i",
        "on"
      ],
      [
        "t",
        "r"
      ],
      [
        "e",
        "l"
      ],
      [
        "c",
        "on"
      ],
      [
        "n",
        "ame"
      ],
      [
        "t",
        "y"
      ],
      [
        "o",
        "f"
      ],
      [
        "d",
        "i"
      ],
      [
        "v",
        "al"
      ],
      [
        "an",
        "d"
      ],
      [
        "en",
        "t"
      ],
      [
        "p",
        "ar"
      ],
      [
        "a",
        "m"
      ],
      [
        "e",
        "x"
      ],
      [
        "re",
        "s"
      ],
      [
        "u",
        "l"
      ],
      [
        "t",
        "er"
      ],
      [
        "r",
        "a"
      ],
      [
        "on",
        "e"
      ],
      [
        "at",
        "a"
      ],
      [
        "st",
        "r"
      ],
      [
        "k",
        "e"
      ],
      [
        "m",
        "a"
      ],
      [
        "(",
        ")"
      ],
      [
        "u",
        "t"
      ],
      [
        "u",
        "m"
      ],
      [
        "ty",
        "pe"
      ],
      [
        "e",
        "d"
      ],
      [
        "N",
        "one"
      ],
      [
        "e",
        "s"
      ],
      [
        "t",
        "s"
      ],
      [
        "d",
        "ata"
      ],
      [
        "no",
        "t"
      ],
      [
        "s",
        "i"
      ],
      [
        "c",
        "k"
      ],
      [
        "a",
        "b"
      ],
      [
        "at",
        "ion"
      ],
      [
        "val",
        "ue"
      ],
      [
        "se",
        "r"
      ],
      [
        "m",
        "p"
      ],
      [
        "--",
        "--"
      ],
      [
        "h",
        "e"
      ],
      [
        "u",
        "p"
      ],
      [
        "p",
        "o"
      ],
      [
        "p",
        "at"
      ],
      [
        "w",
        "i"
      ],
      [
        "v",
        "er"
      ],
      [
        "fi",
        "le"
      ],
      [
        "o",
        "b"
      ],
      [
        "ar",
        "g"
      ],
      [
        "d",
        "_"
      ],
      [
        "r",
        "i"
      ],
      [
        "m",
        "o"
      ],
      [
        "p",
        "ro"
      ],
      [
        "a",
        "p"
      ],
      [
        "m",
        "at"
      ],
      [
        "pat",
        "h"
      ],
      [
        "n",
        "e"
      ],
      [
        "b",
        "e"
      ],
      [
        ")",
        ")"
      ],
      [
        "r",
        "or"
      ],
      [
        "s",
        "s"
      ],
      [
        "o",
        "p"
      ],
      [
        "'",
        ","
      ],
      [
        "c",
        "tion"
      ],
      [
        "i",
        "t"
      ],
      [
        "o",
        "l"
      ],
      [
        "(",
        "'"
      ],
      [
        "al",
        "l"
      ],
      [
        "c",
        "l"
      ],
      [
        "v",
        "e"
      ],
      [
        "ke",
        "y"
      ],
      [
        "p",
        "a"
      ],
      [
        "R",
        "e"
      ],
      [
        "in",
        "t"
      ],
      [
        "par",
        "am"
      ],
      [
        "s",
        "_"
      ],
      [
        "en",
        "d"
      ],
      [
        "l",
        "en"
      ],
      [
        "se",
        "t"
      ],
      [
        "li",
        "st"
      ],
      [
        "ge",
        "t"
      ],
      [
        "[",
        "'"
      ],
      [
        "t",
        "a"
      ],
      [
        "'",
        "]"
      ],
      [
        "ti",
        "me"
      ],
      [
        "v",
        "i"
      ],
      [
        "ob",
        "j"
      ],
      [
        "a",
        "ge"
      ],
      [
        "s",
        "u"
      ],
      [
        "ab",
        "le"
      ],
      [
        "i",
        "l"
      ],
      [
        "'",
        ")"
      ],
      [
        "=",
        "="
      ],
      [
        "b",
        "u"
      ],
      [
        "q",
        "u"
      ],
      [
        "b",
        "o"
      ],
      [
        "an",
        "ce"
      ],
      [
        "l",
        "in"
      ],
      [
        "wi",
        "th"
      ],
      [
        "re",
        "n"
      ],
      [
        "s",
        "h"
      ],
      [
        "ro",
        "m"
      ],
      [
        "arg",
        "s"
      ],
      [
        "'",
        ":"
      ],
      [
        "o",
        "ut"
      ],
      [
        "E",
        "r"
      ],
      [
        "f",
        "rom"
      ],
      [
        "Er",
        "ror"
      ],
      [
        "e",
        "ct"
      ],
      [
        "ge",
        "t_"
      ],
      [
        "(",
        "\""
      ],
      [
        "el",
        "se"
      ],
      [
        "i",
        "se"
      ],
      [
        "f",
        "o"
      ],
      [
        "ul",
        "t"
      ],
      [
        "p",
        "er"
      ],
      [
        "d",
        "o"
      ],
      [
        "l",
        "a"
      ],
      [
        "l",
        "y"
      ],
      [
        "or",
        "d"
      ],
      [
        "p",
        "re"
      ],
      [
        "for",
        "mat"
      ],
      [
        "te",
        "x"
      ],
      [
        "b",
        "a"
      ],
      [
        "q",
        "ue"
      ],
      [
        "st",
        "ance"
      ],
      [
        "ap",
        "p"
      ],
      [
        "s",
        "ion"
      ],
      [
        "co",
        "de"
      ],
      [
        "_",
        "name"
      ],
      [
        "as",
        "s"
      ],
      [
        "tr",
        "y"
      ],
      [
        "co",
        "l"
      ],
      [
        "ce",
        "p"
      ],
      [
        "m",
        "ent"
      ],
      [
        "i",
        "g"
      ],
      [
        "lo",
        "g"
      ],
      [
        "_",
        "s"
      ],
      [
        "i",
        "c"
      ],
      [
        "T",
        "r"
      ],
      [
        "ra",
        "ise"
      ],
      [
        "b",
        "y"
      ],
      [
        "T",
        "he"
      ],
      [
        "pe",
        "c"
      ],
      [
        "ch",
        "e"
      ],
      [
        "d",
        "ate"
      ],
      [
        "tex",
        "t"
      ],
      [
        "p",
        "y"
      ],
      [
        "te",
        "d"
      ],
      [
        "_",
        "id"
      ],
      [
        "a",
        "re"
      ],
      [
        "a",
        "c"
      ],
      [
        "Tr",
        "ue"
      ],
      [
        "s",
        "o"
      ],
      [
        "z",
        "e"
      ],
      [
        "e",
        "t"
      ],
      [
        "s",
        "c"
      ],
      [
        "str",
        "ing"
      ],
      [
        "`",
        "`"
      ],
      [
        "fi",
        "g"
      ],
      [
        "ra",
        "y"
      ],
      [
        "te",
        "m"
      ],
      [
        "obj",
        "ect"
      ],
      [
        "f",
        "a"
      ],
      [
        "l",
        "l"
      ],
      [
        "I",
        "n"
      ],
      [
        "i",
        "st"
      ],
      [
        "Re",
        "turn"
      ],
      [
        "re",
        "ad"
      ],
      [
        "n",
        "um"
      ],
      [
        "'",
        "'"
      ],
      [
        "al",
        "se"
      ],
      [
        "w",
        "e"
      ],
      [
        "or",
        "t"
      ],
      [
        "-",
        "+"
      ],
      [
        "u",
        "s"
      ],
      [
        "u",
        "se"
      ],
      [
        "in",
        "stance"
      ],
      [
        "tr",
        "i"
      ],
      [
        "co",
        "m"
      ],
      [
        "F",
        "alse"
      ],
      [
        "w",
        "h"
      ],
      [
        "er",
        "s"
      ],
      [
        "\"",
        ","
      ],
      [
        "que",
        "st"
      ],
      [
        "_",
        "c"
      ],
      [
        "f",
        "un"
      ],
      [
        "lin",
        "e"
      ],
      [
        ")",
        ","
      ],
      [
        "-+",
        "-+"
      ],
      [
        "su",
        "b"
      ],
      [
        "{",
        "}"
      ],
      [
        "th",
        "at"
      ],
      [
        "ce",
        "s"
      ],
      [
        "i",
        "tem"
      ],
      [
        "di",
        "ct"
      ],
      [
        "ar",
        "ray"
      ],
      [
        "de",
        "x"
      ],
      [
        "c",
        "ur"
      ],
      [
        "re",
        "d"
      ],
      [
        "co",
        "mp"
      ],
      [
        "i",
        "p"
      ],
      [
        "th",
        "is"
      ],
      [
        "_",
        "in"
      ],
      [
        "ex",
        "cep"
      ],
      [
        "k",
        "w"
      ],
      [
        "ce",
        "ss"
      ],
      [
        "co",
        "un"
      ],
      [
        "ct",
        "or"
      ],
      [
        "op",
        "tion"
      ],
      [
        "\"",
        ")"
      ],
      [
        "con",
        "fig"
      ],
      [
        "p",
        "ut"
      ],
      [
        "lo",
        "w"
      ],
      [
        "*",
        "*"
      ],
      [
        "ame",
        "ter"
      ],
      [
        "am",
        "p"
      ],
      [
        "el",
        "d"
      ],
      [
        "w",
        "or"
      ],
      [
        "ne",
        "w"
      ],
      [
        "u",
        "re"
      ],
      [
        "re",
        "quest"
      ],
      [
        "un",
        "d"
      ],
      [
        "s",
        "pec"
      ],
      [
        "v",
        "en"
      ],
      [
        "no",
        "de"
      ],
      [
        "er",
        "ror"
      ],
      [
        "lo",
        "ad"
      ],
      [
        "u",
        "ser"
      ],
      [
        "o",
        "d"
      ],
      [
        "de",
        "l"
      ],
      [
        "se",
        "n"
      ],
      [
        "g",
        "er"
      ],
      [
        "n",
        "p"
      ],
      [
        "h",
        "t"
      ],
      [
        "b",
        "er"
      ],
      [
        "wor",
        "k"
      ],
      [
        "def",
        "a"
      ],
      [
        "c",
        "a"
      ],
      [
        "kw",
        "args"
      ],
      [
        "Return",
        "s"
      ],
      [
        "m",
        "in"
      ],
      [
        "f",
        "e"
      ],
      [
        "value",
        "s"
      ],
      [
        "st",
        "ar"
      ],
      [
        "p",
        "on"
      ],
      [
        "]",
        ")"
      ],
      [
        "app",
        "end"
      ],
      [
        "g",
        "i"
      ],
      [
        "p",
        "h"
      ],
      [
        "ad",
        "d"
      ],
      [
        "C",
        "on"
      ],
      [
        "en",
        "ti"
      ],
      [
        "s",
        "y"
      ],
      [
        "lo",
        "c"
      ],
      [
        "con",
        "t"
      ],
      [
        "me",
        "th"
      ],
      [
        "P",
        "ar"
      ],
      [
        "al",
        "i"
      ],
      [
        "re",
        "ate"
      ],
      [
        "u",
        "st"
      ],
      [
        "cl",
        "ass"
      ],
      [
        "ma",
        "x"
      ],
      [
        "_",
        "type"
      ],
      [
        ">",
        ">"
      ],
      [
        "an",
        "ge"
      ],
      [
        "_",
        "_"
      ],
      [
        "o",
        "s"
      ],
      [
        "me",
        "ss"
      ],
      [
        "]",
        ","
      ],
      [
        "ar",
        "y"
      ],
      [
        "re",
        "c"
      ],
      [
        "mess",
        "age"
      ],
      [
        "si",
        "ze"
      ],
      [
        "h",
        "as"
      ],
      [
        "ur",
        "l"
      ],
      [
        "p",
        "r"
      ],
      [
        "----",
        "----"
      ],
      [
        "an",
        "s"
      ],
      [
        "V",
        "al"
      ],
      [
        "at",
        "or"
      ],
      [
        "val",
        "id"
      ],
      [
        "res",
        "ult"
      ],
      [
        "E",
        "x"
      ],
      [
        "for",
        "m"
      ],
      [
        "t",
        "ar"
      ],
      [
        "th",
        "er"
      ],
      [
        "g",
        "ro"
      ],
      [
        "i",
        "le"
      ],
      [
        "I",
        "f"
      ],
      [
        "ba",
        "se"
      ],
      [
        "ur",
        "ce"
      ],
      [
        "ren",
        "t"
      ],
      [
        "te",
        "s"
      ],
      [
        "'",
        "."
      ],
      [
        "g",
        "en"
      ],
      [
        "in",
        "d"
      ],
      [
        "di",
        "r"
      ],
      [
        "as",
        "k"
      ],
      [
        "h",
        "o"
      ],
      [
        ".",
        "."
      ],
      [
        "v",
        "ent"
      ],
      [
        "res",
        "pon"
      ],
      [
        "in",
        "dex"
      ],
      [
        "g",
        "s"
      ],
      [
        "com",
        "m"
      ],
      [
        "p",
        "u"
      ],
      [
        ")",
        "."
      ],
      [
        "vi",
        "ce"
      ],
      [
        "p",
        "i"
      ],
      [
        "st",
        "at"
      ],
      [
        "si",
        "g"
      ],
      [
        "excep",
        "t"
      ],
      [
        "wi",
        "ll"
      ],
      [
        "ver",
        "sion"
      ],
      [
        "i",
        "m"
      ],
      [
        "v",
        "ar"
      ],
      [
        "st",
        "ate"
      ],
      [
        "he",
        "ad"
      ],
      [
        "to",
        "_"
      ],
      [
        "w",
        "ri"
      ],
      [
        "a",
        "u"
      ],
      [
        "gro",
        "up"
      ],
      [
        "meth",
        "od"
      ],
      [
        "ameter",
        "s"
      ],
      [
        "ba",
        "ck"
      ],
      [
        "Val",
        "ue"
      ],
      [
        "el",
        "if"
      ],
      [
        "d",
        "u"
      ],
      [
        "er",
        "_"
      ],
      [
        "c",
        "all"
      ],
      [
        "fi",
        "eld"
      ],
      [
        "e",
        "c"
      ],
      [
        "0",
        "0"
      ],
      [
        "um",
        "ent"
      ],
      [
        "m",
        "s"
      ],
      [
        "st",
        "e"
      ],
      [
        "tr",
        "a"
      ],
      [
        "p",
        "la"
      ],
      [
        "o",
        "t"
      ],
      [
        ":",
        "`"
      ],
      [
        "s",
        "p"
      ],
      [
        "T",
        "h"
      ],
      [
        "defa",
        "ult"
      ],
      [
        "amp",
        "le"
      ],
      [
        "respon",
        "se"
      ],
      [
        "lo",
        "ck"
      ],
      [
        "o",
        "k"
      ],
      [
        "i",
        "es"
      ],
      [
        "sc",
        "ri"
      ],
      [
        "p",
        "tion"
      ],
      [
        "al",
        "_"
      ],
      [
        "ma",
        "p"
      ],
      [
        "o",
        "m"
      ],
      [
        "un",
        "i"
      ],
      [
        "s",
        "on"
      ],
      [
        "fun",
        "ction"
      ],
      [
        "er",
        "y"
      ],
      [
        "ta",
        "in"
      ],
      [
        "is",
        "_"
      ],
      [
        "[",
        "\""
      ],
      [
        "y",
        "pe"
      ],
      [
        "de",
        "d"
      ],
      [
        "te",
        "mp"
      ],
      [
        "ex",
        "t"
      ],
      [
        "g",
        "r"
      ],
      [
        "_",
        "data"
      ],
      [
        "at",
        "tr"
      ],
      [
        "i",
        "mp"
      ],
      [
        "coun",
        "t"
      ],
      [
        ".",
        "\"\"\""
      ],
      [
        "mo",
        "del"
      ],
      [
        "A",
        "r"
      ],
      [
        "_",
        "path"
      ],
      [
        "_",
        "re"
      ],
      [
        "\"",
        ":"
      ],
      [
        "mat",
        "ch"
      ],
      [
        "c",
        "an"
      ],
      [
        "up",
        "date"
      ],
      [
        "che",
        "ck"
      ],
      [
        "num",
        "ber"
      ],
      [
        "par",
        "se"
      ],
      [
        "is",
        "instance"
      ],
      [
        "in",
        "ter"
      ],
      [
        "in",
        "fo"
      ],
      [
        "spec",
        "if"
      ],
      [
        "g",
        "th"
      ],
      [
        "sig",
        "n"
      ],
      [
        "a",
        "ve"
      ],
      [
        "D",
        "e"
      ],
      [
        "Th",
        "is"
      ],
      [
        "ro",
        "w"
      ],
      [
        "k",
        "en"
      ],
      [
        "tr",
        "ans"
      ],
      [
        "f",
        "lo"
      ],
      [
        "fi",
        "len"
      ],
      [
        "=",
        "'"
      ],
      [
        "fi",
        "x"
      ],
      [
        "tri",
        "bu"
      ],
      [
        "gi",
        "ven"
      ],
      [
        "qu",
        "ery"
      ],
      [
        "ate",
        "d"
      ],
      [
        "fi",
        "l"
      ],
      [
        "r",
        "un"
      ],
      [
        "o",
        "in"
      ],
      [
        "con",
        "text"
      ],
      [
        "p",
        "ort"
      ],
      [
        "(",
        "):"
      ],
      [
        "i",
        "r"
      ],
      [
        "s",
        "or"
      ],
      [
        "t",
        "ing"
      ],
      [
        "l",
        "ab"
      ],
      [
        "flo",
        "at"
      ],
      [
        "li",
        "c"
      ],
      [
        "h",
        "and"
      ],
      [
        "-+-+",
        "-+-+"
      ],
      [
        "filen",
        "ame"
      ],
      [
        "ma",
        "ge"
      ],
      [
        "p",
        "s"
      ],
      [
        "to",
        "ken"
      ],
      [
        "a",
        "y"
      ],
      [
        "il",
        "d"
      ],
      [
        "w",
        "n"
      ],
      [
        "param",
        "s"
      ],
      [
        "po",
        "int"
      ],
      [
        "j",
        "oin"
      ],
      [
        "c",
        "li"
      ],
      [
        "di",
        "re"
      ],
      [
        "a",
        "v"
      ],
      [
        "e",
        "vent"
      ],
      [
        "a",
        "x"
      ],
      [
        "c",
        "reate"
      ],
      [
        "p",
        "l"
      ],
      [
        "con",
        "ne"
      ],
      [
        "I",
        "D"
      ],
      [
        "key",
        "s"
      ],
      [
        "len",
        "gth"
      ],
      [
        "\"",
        "]"
      ],
      [
        "r",
        "ame"
      ],
      [
        "[",
        "]"
      ],
      [
        "con",
        "tain"
      ],
      [
        "''",
        "'"
      ],
      [
        "st",
        "_"
      ],
      [
        "an",
        "g"
      ],
      [
        "cl",
        "s"
      ],
      [
        "j",
        "son"
      ],
      [
        "en",
        "t_"
      ],
      [
        "name",
        "s"
      ],
      [
        "\"",
        "."
      ],
      [
        "o",
        "u"
      ],
      [
        "wri",
        "te"
      ],
      [
        "O",
        "N"
      ],
      [
        "log",
        "ger"
      ],
      [
        "d",
        "is"
      ],
      [
        "d",
        "f"
      ],
      [
        "sh",
        "o"
      ],
      [
        "ul",
        "ts"
      ],
      [
        "lab",
        "el"
      ],
      [
        "wh",
        "i"
      ],
      [
        "c",
        "al"
      ],
      [
        "E",
        "R"
      ],
      [
        "um",
        "n"
      ],
      [
        "ul",
        "d"
      ],
      [
        "re",
        "mo"
      ],
      [
        "s",
        "ing"
      ],
      [
        "N",
        "o"
      ],
      [
        "le",
        "ment"
      ],
      [
        "_",
        "f"
      ],
      [
        "item",
        "s"
      ],
      [
        "T",
        "ype"
      ],
      [
        "G",
        "et"
      ],
      [
        "u",
        "te"
      ],
      [
        "D",
        "ata"
      ],
      [
        "Value",
        "Error"
      ],
      [
        "f",
        "f"
      ],
      [
        "of",
        "f"
      ],
      [
        "pro",
        "cess"
      ],
      [
        "pr",
        "int"
      ],
      [
        "se",
        "s"
      ],
      [
        "I",
        "N"
      ],
      [
        "b",
        "lock"
      ],
      [
        "i",
        "ter"
      ],
      [
        "se",
        "d"
      ],
      [
        "w",
        "ord"
      ],
      [
        "_",
        "file"
      ],
      [
        "col",
        "umn"
      ],
      [
        "fil",
        "ter"
      ],
      [
        "t",
        "able"
      ],
      [
        "re",
        "g"
      ],
      [
        "option",
        "s"
      ],
      [
        "fun",
        "c"
      ],
      [
        "out",
        "put"
      ],
      [
        "d",
        "er"
      ],
      [
        "comm",
        "and"
      ],
      [
        "an",
        "y"
      ],
      [
        "Par",
        "ameters"
      ],
      [
        "star",
        "t"
      ],
      [
        "ctor",
        "y"
      ],
      [
        "bu",
        "g"
      ],
      [
        "S",
        "T"
      ],
      [
        "i",
        "ed"
      ],
      [
        "in",
        "ts"
      ],
      [
        "i",
        "mage"
      ],
      [
        "m",
        "is"
      ],
      [
        "p",
        "_"
      ],
      [
        "ation",
        "s"
      ],
      [
        "d",
        "y"
      ],
      [
        "pa",
        "ce"
      ],
      [
        "whi",
        "ch"
      ],
      [
        "qu",
        "i"
      ],
      [
        "res",
        "s"
      ],
      [
        "de",
        "bug"
      ],
      [
        "or",
        "m"
      ],
      [
        "r",
        "ange"
      ],
      [
        "ex",
        "ist"
      ],
      [
        "gen",
        "er"
      ],
      [
        "le",
        "s"
      ],
      [
        "arg",
        "ument"
      ],
      [
        "ap",
        "i"
      ],
      [
        "en",
        "try"
      ],
      [
        "cl",
        "u"
      ],
      [
        "ne",
        "t"
      ],
      [
        "sh",
        "a"
      ],
      [
        "in",
        "i"
      ],
      [
        "t",
        "ask"
      ],
      [
        "ra",
        "ph"
      ],
      [
        "par",
        "ser"
      ],
      [
        "C",
        "o"
      ],
      [
        "v",
        "el"
      ],
      [
        "d",
        "s"
      ],
      [
        ">>",
        ">"
      ],
      [
        "a",
        "ch"
      ],
      [
        "n",
        "ing"
      ],
      [
        "--------",
        "--"
      ],
      [
        "so",
        "urce"
      ],
      [
        "at",
        "tribu"
      ],
      [
        "pro",
        "per"
      ],
      [
        "c",
        "ke"
      ],
      [
        "a",
        "g"
      ],
      [
        "ex",
        "p"
      ],
      [
        "de",
        "p"
      ],
      [
        "pu",
        "t_"
      ],
      [
        "]",
        "."
      ],
      [
        "ms",
        "g"
      ],
      [
        "a",
        "ction"
      ],
      [
        "al",
        "y"
      ],
      [
        "+",
        "="
      ],
      [
        "ar",
        "ch"
      ],
      [
        "on",
        "ly"
      ],
      [
        "rec",
        "ord"
      ],
      [
        "use",
        "d"
      ],
      [
        "au",
        "th"
      ],
      [
        "se",
        "t_"
      ],
      [
        "c",
        "or"
      ],
      [
        "j",
        "ob"
      ],
      [
        "fi",
        "r"
      ],
      [
        "P",
        "ro"
      ],
      [
        "o",
        "ther"
      ],
      [
        "cont",
        "ent"
      ],
      [
        "re",
        "e"
      ],
      [
        "c",
        "_"
      ],
      [
        "sp",
        "li"
      ],
      [
        "tar",
        "get"
      ],
      [
        "E",
        "_"
      ],
      [
        "d",
        "ing"
      ],
      [
        "bo",
        "ol"
      ],
      [
        "fe",
        "ren"
      ],
      [
        "ti",
        "es"
      ],
      [
        "y",
        "_"
      ],
      [
        "ed",
        "_"
      ],
      [
        "p",
        "ass"
      ],
      [
        "var",
        "i"
      ],
      [
        "ser",
        "vice"
      ],
      [
        "ul",
        "l"
      ],
      [
        "at",
        "i"
      ],
      [
        "d",
        "if"
      ],
      [
        "pla",
        "ce"
      ],
      [
        "str",
        "u"
      ],
      [
        "A",
        "T"
      ],
      [
        "w",
        "ar"
      ],
      [
        "e",
        "w"
      ],
      [
        "return",
        "s"
      ],
      [
        "A",
        "n"
      ],
      [
        "cur",
        "rent"
      ],
      [
        "w",
        "he"
      ],
      [
        "li",
        "b"
      ],
      [
        "op",
        "en"
      ],
      [
        "o",
        "urce"
      ],
      [
        "Ar",
        "gs"
      ],
      [
        "!",
        "="
      ],
      [
        "re",
        "am"
      ],
      [
        "o",
        "ver"
      ],
      [
        "ol",
        "u"
      ],
      [
        "ta",
        "g"
      ],
      [
        "U",
        "n"
      ],
      [
        "m",
        "ust"
      ],
      [
        "ig",
        "h"
      ],
      [
        "R",
        "E"
      ],
      [
        "mo",
        "du"
      ],
      [
        "col",
        "or"
      ],
      [
        "t",
        "up"
      ],
      [
        "j",
        "ect"
      ],
      [
        "m",
        "it"
      ],
      [
        "ad",
        "d_"
      ],
      [
        "po",
        "ints"
      ],
      [
        "p",
        "ri"
      ],
      [
        "s",
        "up"
      ],
      [
        "N",
        "ame"
      ],
      [
        "c",
        "ate"
      ],
      [
        "_",
        "key"
      ],
      [
        "scri",
        "ption"
      ],
      [
        "stat",
        "us"
      ],
      [
        "a",
        "se"
      ],
      [
        "l",
        "ate"
      ],
      [
        "s",
        "um"
      ],
      [
        "all",
        "y"
      ],
      [
        "m",
        "l"
      ],
      [
        "i",
        "ts"
      ],
      [
        "pa",
        "ge"
      ],
      [
        "ma",
        "in"
      ],
      [
        "me",
        "t"
      ],
      [
        "S",
        "t"
      ],
      [
        "off",
        "set"
      ],
      [
        "en",
        "c"
      ],
      [
        "do",
        "c"
      ],
      [
        "m",
        "ar"
      ],
      [
        "w",
        "a"
      ],
      [
        "lo",
        "t"
      ],
      [
        "ali",
        "z"
      ],
      [
        "b",
        "le"
      ],
      [
        "ter",
        "n"
      ],
      [
        "pre",
        "fix"
      ],
      [
        "se",
        "ss"
      ],
      [
        "bo",
        "dy"
      ],
      [
        "ing",
        "_"
      ],
      [
        "[",
        ":"
      ],
      [
        "h",
        "ave"
      ],
      [
        "(",
        "["
      ],
      [
        "o",
        "c"
      ],
      [
        "sha",
        "pe"
      ],
      [
        "r",
        "type"
      ],
      [
        "at",
        "ure"
      ],
      [
        "sess",
        "ion"
      ],
      [
        "()",
        ")"
      ],
      [
        "S",
        "e"
      ],
      [
        "or",
        "y"
      ],
      [
        "n",
        "el"
      ],
      [
        "p",
        "or"
      ],
      [
        "L",
        "ist"
      ],
      [
        "pa",
        "ck"
      ],
      [
        "file",
        "s"
      ],
      [
        "in",
        "put"
      ],
      [
        "e",
        "lement"
      ],
      [
        "le",
        "d"
      ],
      [
        "w",
        "id"
      ],
      [
        "gr",
        "id"
      ],
      [
        "A",
        "d"
      ],
      [
        "new",
        "_"
      ],
      [
        "f",
        "in"
      ],
      [
        "le",
        "te"
      ],
      [
        "u",
        "g"
      ],
      [
        "cep",
        "tion"
      ],
      [
        "id",
        "enti"
      ],
      [
        "imp",
        "ort"
      ],
      [
        "(",
        "("
      ],
      [
        "_",
        "b"
      ],
      [
        "m",
        "ul"
      ],
      [
        "th",
        "on"
      ],
      [
        "_",
        "list"
      ],
      [
        "has",
        "h"
      ],
      [
        "Ex",
        "ception"
      ],
      [
        "ad",
        "ata"
      ],
      [
        "n",
        "orm"
      ],
      [
        "y",
        "n"
      ],
      [
        "spli",
        "t"
      ],
      [
        "le",
        "vel"
      ],
      [
        "en",
        "ce"
      ],
      [
        "ti",
        "l"
      ],
      [
        "po",
        "si"
      ],
      [
        "ra",
        "w"
      ],
      [
        "excep",
        "tion"
      ],
      [
        "res",
        "ults"
      ],
      [
        "ch",
        "ar"
      ],
      [
        "ex",
        "ec"
      ],
      [
        "st",
        "ream"
      ],
      [
        "ti",
        "ve"
      ],
      [
        "c",
        "re"
      ],
      [
        "specif",
        "ied"
      ],
      [
        "co",
        "py"
      ],
      [
        "i",
        "eld"
      ],
      [
        "lin",
        "es"
      ],
      [
        "tup",
        "le"
      ],
      [
        "f",
        "rame"
      ],
      [
        "t",
        "le"
      ],
      [
        "cli",
        "ent"
      ],
      [
        "ren",
        "t_"
      ],
      [
        "m",
        "an"
      ],
      [
        "an",
        "t"
      ],
      [
        "pa",
        "y"
      ],
      [
        "K",
        "e"
      ],
      [
        "mo",
        "de"
      ],
      [
        "c",
        "lo"
      ],
      [
        "m",
        "d"
      ],
      [
        "ser",
        "ver"
      ],
      [
        "1",
        "0"
      ],
      [
        "p",
        "t"
      ],
      [
        "----",
        "--"
      ],
      [
        "me",
        "m"
      ],
      [
        "feren",
        "ce"
      ],
      [
        "ar",
        "d"
      ],
      [
        "ig",
        "ht"
      ],
      [
        "clu",
        "de"
      ],
      [
        "max",
        "_"
      ],
      [
        "sho",
        "uld"
      ],
      [
        "O",
        "R"
      ],
      [
        "po",
        "s"
      ],
      [
        "option",
        "al"
      ],
      [
        "file",
        "_"
      ],
      [
        "T",
        "_"
      ],
      [
        "an",
        "aly"
      ],
      [
        "E",
        "n"
      ],
      [
        "net",
        "work"
      ],
      [
        "re",
        "f"
      ],
      [
        "di",
        "ction"
      ],
      [
        "..",
        "."
      ],
      [
        "ste",
        "m"
      ],
      [
        "modu",
        "le"
      ],
      [
        "head",
        "er"
      ],
      [
        "'",
        "):"
      ],
      [
        "ma",
        "ke"
      ],
      [
        "sen",
        "t"
      ],
      [
        "by",
        "tes"
      ],
      [
        "Ke",
        "y"
      ],
      [
        "']",
        ","
      ],
      [
        "fir",
        "st"
      ],
      [
        "vi",
        "ew"
      ],
      [
        "st",
        "o"
      ],
      [
        "in",
        "to"
      ],
      [
        "in",
        "e"
      ],
      [
        "ch",
        "ange"
      ],
      [
        "F",
        "ile"
      ],
      [
        "L",
        "o"
      ],
      [
        "A",
        "P"
      ],
      [
        "v",
        "ed"
      ],
      [
        "ho",
        "st"
      ],
      [
        "_",
        "de"
      ],
      [
        "E",
        "N"
      ],
      [
        "{",
        "'"
      ],
      [
        "head",
        "ers"
      ],
      [
        "e",
        "ach"
      ],
      [
        "s",
        "ample"
      ],
      [
        "dire",
        "ctory"
      ],
      [
        "at",
        "ch"
      ],
      [
        "e",
        "mp"
      ],
      [
        "-",
        ">"
      ],
      [
        "lo",
        "b"
      ],
      [
        "a",
        "il"
      ],
      [
        "ord",
        "er"
      ],
      [
        "op",
        "er"
      ],
      [
        "m",
        "i"
      ],
      [
        "ti",
        "tle"
      ],
      [
        "time",
        "out"
      ],
      [
        "e",
        "ven"
      ],
      [
        "D",
        "i"
      ],
      [
        "()",
        ","
      ],
      [
        "l",
        "er"
      ],
      [
        "re",
        "qui"
      ],
      [
        "en",
        "code"
      ],
      [
        "la",
        "y"
      ],
      [
        "c",
        "ul"
      ],
      [
        "me",
        "di"
      ],
      [
        "r",
        "on"
      ],
      [
        "in",
        "s"
      ],
      [
        "al",
        "low"
      ],
      [
        "ol",
        "d"
      ],
      [
        "u",
        "b"
      ],
      [
        "a",
        "ck"
      ],
      [
        "wh",
        "en"
      ],
      [
        "add",
        "ress"
      ],
      [
        "uni",
        "code"
      ],
      [
        "wa",
        "it"
      ],
      [
        "ate",
        "s"
      ],
      [
        "sy",
        "s"
      ],
      [
        "a",
        "ct"
      ],
      [
        "ax",
        "is"
      ],
      [
        "re",
        "l"
      ],
      [
        "cl",
        "as"
      ],
      [
        "se",
        "arch"
      ],
      [
        "su",
        "re"
      ],
      [
        "object",
        "s"
      ],
      [
        "_in",
        "fo"
      ],
      [
        "pay",
        "load"
      ],
      [
        "#",
        "#"
      ],
      [
        "=",
        "\""
      ],
      [
        "from",
        "_"
      ],
      [
        "li",
        "ke"
      ],
      [
        "stru",
        "ct"
      ],
      [
        "a",
        "f"
      ],
      [
        "u",
        "id"
      ],
      [
        "a",
        "k"
      ],
      [
        "D",
        "E"
      ],
      [
        "set",
        "ting"
      ],
      [
        "pa",
        "rent"
      ],
      [
        "attribu",
        "te"
      ],
      [
        "ment",
        "s"
      ],
      [
        "S",
        "et"
      ],
      [
        "en",
        "sion"
      ],
      [
        "che",
        "ma"
      ],
      [
        "str",
        "i"
      ],
      [
        "n",
        "_"
      ],
      [
        "c",
        "t_"
      ],
      [
        "_",
        "size"
      ],
      [
        "lin",
        "k"
      ],
      [
        "o",
        "ur"
      ],
      [
        "R",
        "es"
      ],
      [
        "cont",
        "in"
      ],
      [
        "ch",
        "ild"
      ],
      [
        "date",
        "time"
      ],
      [
        "i",
        "o"
      ],
      [
        "se",
        "le"
      ],
      [
        "_",
        "value"
      ],
      [
        "re",
        "place"
      ],
      [
        "par",
        "ameter"
      ],
      [
        "ht",
        "t"
      ],
      [
        "z",
        "er"
      ],
      [
        "met",
        "adata"
      ],
      [
        "g",
        "raph"
      ],
      [
        "al",
        "s"
      ],
      [
        "-+-+-+-+",
        "-+-+-+-+"
      ],
      [
        "conne",
        "ction"
      ],
      [
        "mis",
        "sion"
      ],
      [
        "F",
        "or"
      ],
      [
        "ro",
        "ot"
      ],
      [
        "wid",
        "th"
      ],
      [
        "d",
        "b"
      ],
      [
        "c",
        "le"
      ],
      [
        "v",
        "_"
      ],
      [
        "ri",
        "x"
      ],
      [
        "ser",
        "t"
      ],
      [
        "fo",
        "re"
      ],
      [
        "S",
        "er"
      ],
      [
        "fo",
        "und"
      ],
      [
        "bo",
        "und"
      ],
      [
        "------",
        "-"
      ],
      [
        "fi",
        "er"
      ],
      [
        "st",
        "or"
      ],
      [
        "L",
        "O"
      ],
      [
        "ca",
        "che"
      ],
      [
        "()",
        "."
      ],
      [
        "remo",
        "ve"
      ],
      [
        "po",
        "p"
      ],
      [
        "mar",
        "k"
      ],
      [
        "/",
        "/"
      ],
      [
        "d",
        "a"
      ],
      [
        "ati",
        "ve"
      ],
      [
        "C",
        "reate"
      ],
      [
        "b",
        "ut"
      ],
      [
        "or",
        "ig"
      ],
      [
        "s",
        "pace"
      ],
      [
        "field",
        "s"
      ],
      [
        "diction",
        "ary"
      ],
      [
        "ul",
        "t_"
      ],
      [
        "cke",
        "t"
      ],
      [
        "s",
        "co"
      ],
      [
        "or",
        "i"
      ],
      [
        "par",
        "ti"
      ],
      [
        "in",
        "st"
      ],
      [
        "l",
        "at"
      ],
      [
        "fa",
        "ce"
      ],
      [
        "tion",
        "s"
      ],
      [
        "_",
        "time"
      ],
      [
        "mul",
        "ti"
      ],
      [
        "e",
        "p"
      ],
      [
        "In",
        "stance"
      ],
      [
        "se",
        "con"
      ],
      [
        "st",
        "amp"
      ],
      [
        "in",
        "di"
      ],
      [
        "A",
        "R"
      ],
      [
        "s",
        "is"
      ],
      [
        "que",
        "ue"
      ],
      [
        "res",
        "ource"
      ],
      [
        "U",
        "R"
      ],
      [
        "t",
        "ree"
      ],
      [
        "to",
        "p"
      ],
      [
        "contin",
        "ue"
      ],
      [
        "par",
        "ameters"
      ],
      [
        "d",
        "type"
      ],
      [
        "at",
        "h"
      ],
      [
        "id",
        "x"
      ],
      [
        "mat",
        "rix"
      ],
      [
        "ali",
        "ze"
      ],
      [
        "_",
        "p"
      ],
      [
        "co",
        "ord"
      ],
      [
        "se",
        "qu"
      ],
      [
        "vari",
        "able"
      ],
      [
        "res",
        "h"
      ],
      [
        "even",
        "t_"
      ],
      [
        "f",
        "low"
      ],
      [
        "pu",
        "b"
      ],
      [
        "_",
        "version"
      ],
      [
        "an",
        "nel"
      ],
      [
        "proper",
        "ties"
      ],
      [
        "ser",
        "i"
      ],
      [
        "on",
        "ent"
      ],
      [
        "]",
        ":"
      ],
      [
        "se",
        "ction"
      ],
      [
        "ur",
        "ation"
      ],
      [
        "whe",
        "re"
      ],
      [
        "a",
        "st"
      ],
      [
        "_",
        "to_"
      ],
      [
        "ra",
        "p"
      ],
      [
        "pi",
        "pe"
      ],
      [
        "argument",
        "s"
      ],
      [
        "do",
        "es"
      ],
      [
        "_",
        "get_"
      ],
      [
        "olu",
        "tion"
      ],
      [
        "un",
        "k"
      ],
      [
        "f",
        "ull"
      ],
      [
        "d",
        "ay"
      ],
      [
        "po",
        "st"
      ],
      [
        "te",
        "d_"
      ],
      [
        "hand",
        "le"
      ],
      [
        "ate",
        "_"
      ],
      [
        "y",
        "ield"
      ],
      [
        "in",
        "_"
      ],
      [
        "pat",
        "tern"
      ],
      [
        "i",
        "me"
      ],
      [
        "li",
        "mit"
      ],
      [
        "p",
        "ing"
      ],
      [
        "us",
        "ing"
      ],
      [
        "node",
        "s"
      ],
      [
        "read",
        "_"
      ],
      [
        "str",
        "ip"
      ],
      [
        "n",
        "on"
      ],
      [
        "ex",
        "tra"
      ],
      [
        "wh",
        "ile"
      ],
      [
        "2",
        "0"
      ],
      [
        "M",
        "E"
      ],
      [
        "on",
        "g"
      ],
      [
        "T",
        "I"
      ],
      [
        "ma",
        "g"
      ],
      [
        "out",
        "put_"
      ],
      [
        "error",
        "s"
      ],
      [
        "ac",
        "cess"
      ],
      [
        "sc",
        "al"
      ],
      [
        "ed",
        "ge"
      ],
      [
        "comp",
        "onent"
      ],
      [
        "is",
        "h"
      ],
      [
        "dep",
        "end"
      ],
      [
        "_",
        "con"
      ],
      [
        "pro",
        "vi"
      ],
      [
        "do",
        "wn"
      ],
      [
        "as",
        "yn"
      ],
      [
        "w",
        "as"
      ],
      [
        "S",
        "tr"
      ],
      [
        "f",
        "la"
      ],
      [
        "emp",
        "ty"
      ],
      [
        "war",
        "ning"
      ],
      [
        "re",
        "st"
      ],
      [
        "I",
        "P"
      ],
      [
        "read",
        "y"
      ],
      [
        "bo",
        "x"
      ],
      [
        "Ad",
        "d"
      ],
      [
        "==",
        "=="
      ],
      [
        "sy",
        "stem"
      ],
      [
        "g",
        "lob"
      ],
      [
        "u",
        "til"
      ],
      [
        "m",
        "b"
      ],
      [
        "call",
        "back"
      ],
      [
        "b",
        "in"
      ],
      [
        "_",
        "url"
      ],
      [
        "to",
        "t"
      ],
      [
        "A",
        "L"
      ],
      [
        "_name",
        "s"
      ],
      [
        "O",
        "ption"
      ],
      [
        "c",
        "ri"
      ],
      [
        "type",
        "s"
      ],
      [
        "v",
        "is"
      ],
      [
        "ch",
        "ed"
      ],
      [
        "b",
        "r"
      ],
      [
        "se",
        "g"
      ],
      [
        "time",
        "stamp"
      ],
      [
        "stor",
        "age"
      ],
      [
        "))",
        ")"
      ],
      [
        "pla",
        "y"
      ],
      [
        "loc",
        "ation"
      ],
      [
        "ch",
        "annel"
      ],
      [
        "E",
        "vent"
      ],
      [
        "p",
        "lot"
      ],
      [
        "_",
        "dir"
      ],
      [
        "se",
        "q"
      ],
      [
        "cur",
        "rent_"
      ],
      [
        "T",
        "ime"
      ],
      [
        "c",
        "ted"
      ],
      [
        "g",
        "ing"
      ],
      [
        "m",
        "er"
      ],
      [
        "P",
        "o"
      ],
      [
        "setting",
        "s"
      ],
      [
        "P",
        "y"
      ],
      [
        "di",
        "m"
      ],
      [
        "en",
        "co"
      ],
      [
        "]",
        "["
      ],
      [
        "a",
        "_"
      ],
      [
        "AP",
        "I"
      ],
      [
        "`",
        "."
      ],
      [
        "p",
        "ly"
      ],
      [
        "af",
        "ter"
      ],
      [
        "M",
        "e"
      ],
      [
        "es",
        "s"
      ],
      [
        "temp",
        "late"
      ],
      [
        "m",
        "ask"
      ],
      [
        "de",
        "scription"
      ],
      [
        "tar",
        "get_"
      ],
      [
        "en",
        "um"
      ],
      [
        "en",
        "er"
      ],
      [
        "p",
        "as"
      ],
      [
        "ur",
        "i"
      ],
      [
        "th",
        "en"
      ],
      [
        "th",
        "ro"
      ],
      [
        "']",
        ")"
      ],
      [
        "an",
        "ts"
      ],
      [
        "b",
        "i"
      ],
      [
        "f",
        "ol"
      ],
      [
        "me",
        "sh"
      ],
      [
        "_",
        "dict"
      ],
      [
        "A",
        "t"
      ],
      [
        "w",
        "o"
      ],
      [
        "am",
        "b"
      ],
      [
        "I",
        "d"
      ],
      [
        "c",
        "md"
      ],
      [
        "m",
        "on"
      ],
      [
        "form",
        "ation"
      ],
      [
        "f",
        "ind"
      ],
      [
        "x",
        "_"
      ],
      [
        "re",
        "q"
      ],
      [
        "C",
        "he"
      ],
      [
        "c",
        "at"
      ],
      [
        "}",
        ")"
      ],
      [
        "no",
        "w"
      ],
      [
        "s",
        "chema"
      ],
      [
        "re",
        "pre"
      ],
      [
        "con",
        "ver"
      ],
      [
        "av",
        "ail"
      ],
      [
        ":",
        "//"
      ],
      [
        "pa",
        "ir"
      ],
      [
        "Par",
        "se"
      ],
      [
        "im",
        "um"
      ],
      [
        "g",
        "o"
      ],
      [
        "exist",
        "s"
      ],
      [
        "py",
        "thon"
      ],
      [
        "re",
        "t"
      ],
      [
        "di",
        "tion"
      ],
      [
        "label",
        "s"
      ],
      [
        "pack",
        "age"
      ],
      [
        "T",
        "O"
      ],
      [
        "c",
        "i"
      ],
      [
        "c",
        "cess"
      ],
      [
        "Che",
        "ck"
      ],
      [
        "tri",
        "es"
      ],
      [
        "in",
        "do"
      ],
      [
        "indo",
        "w"
      ],
      [
        "or",
        "_"
      ],
      [
        "ht",
        "ml"
      ],
      [
        "sto",
        "re"
      ],
      [
        "R",
        "a"
      ],
      [
        "re",
        "ak"
      ],
      [
        "orig",
        "in"
      ],
      [
        "sequ",
        "ence"
      ],
      [
        "ce",
        "i"
      ],
      [
        "ve",
        "ctor"
      ],
      [
        "la",
        "st"
      ],
      [
        "de",
        "vice"
      ],
      [
        "return",
        "ed"
      ],
      [
        "a",
        "ger"
      ],
      [
        "st",
        "ack"
      ],
      [
        "low",
        "er"
      ],
      [
        "be",
        "t"
      ],
      [
        "in",
        "clude"
      ],
      [
        "loc",
        "al"
      ],
      [
        "c",
        "er"
      ],
      [
        "de",
        "code"
      ],
      [
        "te",
        "st"
      ],
      [
        "_",
        "pro"
      ],
      [
        "s",
        "id"
      ],
      [
        "ca",
        "se"
      ],
      [
        "posi",
        "tion"
      ],
      [
        "star",
        "t_"
      ],
      [
        "th",
        "an"
      ],
      [
        "to",
        "ol"
      ],
      [
        "res",
        "sion"
      ],
      [
        "sing",
        "le"
      ],
      [
        "h",
        "el"
      ],
      [
        "bu",
        "ff"
      ],
      [
        "A",
        "C"
      ],
      [
        "ma",
        "y"
      ],
      [
        "c",
        "ent"
      ],
      [
        "lo",
        "op"
      ],
      [
        "_",
        "di"
      ],
      [
        "'",
        "))"
      ],
      [
        "L",
        "E"
      ],
      [
        "O",
        "b"
      ],
      [
        "al",
        "ready"
      ],
      [
        "an",
        "ch"
      ],
      [
        "st",
        "op"
      ],
      [
        "y",
        "ou"
      ],
      [
        "par",
        "t"
      ],
      [
        "[",
        "-"
      ],
      [
        "v",
        "es"
      ],
      [
        "the",
        "re"
      ],
      [
        "avail",
        "able"
      ],
      [
        "u",
        "res"
      ],
      [
        "le",
        "ase"
      ],
      [
        "ile",
        "d"
      ],
      [
        "ter",
        "min"
      ],
      [
        "asyn",
        "c"
      ],
      [
        "wi",
        "se"
      ],
      [
        "s",
        "ame"
      ],
      [
        "hand",
        "ler"
      ],
      [
        "s",
        "r"
      ],
      [
        "6",
        "4"
      ],
      [
        "S",
        "E"
      ],
      [
        "U",
        "T"
      ],
      [
        "Re",
        "ad"
      ],
      [
        "sy",
        "n"
      ],
      [
        "H",
        "T"
      ],
      [
        "re",
        "ference"
      ],
      [
        "C",
        "h"
      ],
      [
        "tr",
        "an"
      ],
      [
        "P",
        "ath"
      ],
      [
        "identi",
        "fier"
      ],
      [
        "_",
        "d"
      ],
      [
        "be",
        "fore"
      ],
      [
        "column",
        "s"
      ],
      [
        "er",
        "r"
      ],
      [
        "r",
        "and"
      ],
      [
        "`",
        ","
      ],
      [
        "trans",
        "form"
      ],
      [
        "se",
        "ts"
      ],
      [
        "ch",
        "o"
      ],
      [
        "log",
        "ging"
      ],
      [
        "clo",
        "se"
      ],
      [
        "as",
        "sert"
      ],
      [
        "ne",
        "ed"
      ],
      [
        "S",
        "_"
      ],
      [
        "b",
        "reak"
      ],
      [
        "z",
        "ip"
      ],
      [
        ":",
        ":"
      ],
      [
        "i",
        "t_"
      ],
      [
        "w",
        "rap"
      ],
      [
        "ab",
        "s"
      ],
      [
        "al",
        "le"
      ],
      [
        "il",
        "l"
      ],
      [
        "S",
        "I"
      ],
      [
        "l",
        "amb"
      ],
      [
        "o",
        "us"
      ],
      [
        "ser",
        "ies"
      ],
      [
        "i",
        "ty"
      ],
      [
        "n",
        "ext"
      ],
      [
        "reg",
        "ist"
      ],
      [
        "tr",
        "ic"
      ],
      [
        "vi",
        "ron"
      ],
      [
        "Con",
        "text"
      ],
      [
        "m",
        "ent_"
      ],
      [
        "ma",
        "il"
      ],
      [
        "_in",
        "dex"
      ],
      [
        "F",
        "I"
      ],
      [
        "et",
        "ch"
      ],
      [
        "ex",
        "c"
      ],
      [
        "T",
        "o"
      ],
      [
        "specif",
        "ic"
      ],
      [
        "enco",
        "ding"
      ],
      [
        "pe",
        "d"
      ],
      [
        "lamb",
        "da"
      ],
      [
        "Ra",
        "ise"
      ],
      [
        "_",
        "token"
      ],
      [
        "an",
        "not"
      ],
      [
        "v",
        "o"
      ],
      [
        "1",
        "00"
      ],
      [
        "de",
        "lete"
      ],
      [
        "A",
        "N"
      ],
      [
        "col",
        "le"
      ],
      [
        "c",
        "r"
      ],
      [
        "P",
        "O"
      ],
      [
        "t",
        "en"
      ],
      [
        "(",
        "*"
      ],
      [
        "v",
        "1"
      ],
      [
        "me",
        "an"
      ],
      [
        "star",
        "ts"
      ],
      [
        "l",
        "ang"
      ],
      [
        "ini",
        "ti"
      ],
      [
        "clas",
        "s_"
      ],
      [
        "f",
        "t"
      ],
      [
        "mo",
        "re"
      ],
      [
        "defa",
        "ult_"
      ],
      [
        "g",
        "ht"
      ],
      [
        "def",
        "ini"
      ],
      [
        "ou",
        "t_"
      ],
      [
        "ig",
        "no"
      ],
      [
        "ad",
        "i"
      ],
      [
        "pas",
        "sed"
      ],
      [
        "contain",
        "er"
      ],
      [
        "C",
        "O"
      ],
      [
        "tri",
        "e"
      ],
      [
        "De",
        "fa"
      ],
      [
        "num",
        "_"
      ],
      [
        "user",
        "name"
      ],
      [
        ")",
        "]"
      ],
      [
        "UR",
        "L"
      ],
      [
        "t",
        "wi"
      ],
      [
        "f",
        "ul"
      ],
      [
        "p",
        "le"
      ],
      [
        "ation",
        "_"
      ],
      [
        "Re",
        "quest"
      ],
      [
        "do",
        "main"
      ],
      [
        "s",
        "ave"
      ],
      [
        "u",
        "al"
      ],
      [
        "bu",
        "ild"
      ],
      [
        "provi",
        "ded"
      ],
      [
        "check",
        "_"
      ],
      [
        "res",
        "ol"
      ],
      [
        "no",
        "wn"
      ],
      [
        "k",
        "er"
      ],
      [
        "Co",
        "mp"
      ],
      [
        "o",
        "le"
      ],
      [
        "de",
        "st"
      ],
      [
        "ac",
        "count"
      ],
      [
        "_s",
        "pec"
      ],
      [
        "in",
        "t_"
      ],
      [
        "proper",
        "ty"
      ],
      [
        "pipe",
        "line"
      ],
      [
        "'",
        "/"
      ],
      [
        "vi",
        "de"
      ],
      [
        "ig",
        "n"
      ],
      [
        "Type",
        "Error"
      ],
      [
        "we",
        "en"
      ],
      [
        "LO",
        "G"
      ],
      [
        "attribu",
        "tes"
      ],
      [
        "analy",
        "sis"
      ],
      [
        "data",
        "_"
      ],
      [
        "li",
        "ent"
      ],
      [
        "ct",
        "s"
      ],
      [
        "bet",
        "ween"
      ],
      [
        "he",
        "ight"
      ],
      [
        "N",
        "um"
      ],
      [
        "'",
        "%"
      ],
      [
        "W",
        "e"
      ],
      [
        "D",
        "O"
      ],
      [
        "N",
        "ot"
      ],
      [
        "in",
        "put_"
      ],
      [
        "u",
        "s_"
      ],
      [
        ")",
        "):"
      ],
      [
        "pl",
        "ug"
      ],
      [
        "_",
        "r"
      ],
      [
        "per",
        "mission"
      ],
      [
        "li",
        "o"
      ],
      [
        "ust",
        "om"
      ],
      [
        "mis",
        "sing"
      ],
      [
        "en",
        "viron"
      ],
      [
        "at",
        "ing"
      ],
      [
        "i",
        "ze"
      ],
      [
        "ec",
        "t_"
      ],
      [
        "S",
        "ON"
      ],
      [
        "uni",
        "que"
      ],
      [
        "I",
        "tem"
      ],
      [
        "con",
        "f"
      ],
      [
        "ge",
        "o"
      ],
      [
        "fa",
        "il"
      ],
      [
        "por",
        "ted"
      ],
      [
        "cate",
        "g"
      ],
      [
        "e",
        "ar"
      ],
      [
        "o",
        "g"
      ],
      [
        "si",
        "de"
      ],
      [
        "ge",
        "ts"
      ],
      [
        "group",
        "s"
      ],
      [
        "st",
        "d"
      ],
      [
        "def",
        "in"
      ],
      [
        "parse",
        "_"
      ],
      [
        "con",
        "st"
      ],
      [
        "A",
        "l"
      ],
      [
        "']",
        "."
      ],
      [
        "enc",
        "y"
      ],
      [
        "co",
        "re"
      ],
      [
        "[:",
        ","
      ],
      [
        "end",
        "point"
      ],
      [
        "d",
        "en"
      ],
      [
        "u",
        "age"
      ],
      [
        "all",
        "_"
      ],
      [
        "for",
        "ce"
      ],
      [
        "ta",
        "il"
      ],
      [
        "w",
        "ay"
      ],
      [
        "rand",
        "om"
      ],
      [
        "U",
        "p"
      ],
      [
        "scri",
        "pt"
      ],
      [
        "D",
        "_"
      ],
      [
        "R",
        "un"
      ],
      [
        "t",
        "x"
      ],
      [
        "get",
        "attr"
      ],
      [
        "')",
        ","
      ],
      [
        "au",
        "to"
      ],
      [
        "T",
        "P"
      ],
      [
        "il",
        "d_"
      ],
      [
        "st",
        "y"
      ],
      [
        "s",
        "k"
      ],
      [
        "N",
        "A"
      ],
      [
        "p",
        "li"
      ],
      [
        "ch",
        "unk"
      ],
      [
        "si",
        "te"
      ],
      [
        "enum",
        "er"
      ],
      [
        "_",
        "of"
      ],
      [
        "_",
        "string"
      ],
      [
        "n",
        "d"
      ],
      [
        "th",
        "read"
      ],
      [
        "In",
        "valid"
      ],
      [
        "parser",
        "_"
      ],
      [
        "names",
        "pace"
      ],
      [
        "n",
        "s"
      ],
      [
        "F",
        "rame"
      ],
      [
        "P",
        "E"
      ],
      [
        "J",
        "SON"
      ],
      [
        "in",
        "te"
      ],
      [
        "in",
        "formation"
      ],
      [
        "me",
        "tric"
      ],
      [
        "1",
        "2"
      ],
      [
        "cal",
        "cul"
      ],
      [
        "secon",
        "ds"
      ],
      [
        "Raise",
        "s"
      ],
      [
        "a",
        "che"
      ],
      [
        "or",
        "t_"
      ],
      [
        "pro",
        "du"
      ],
      [
        "M",
        "o"
      ],
      [
        "j",
        "ust"
      ],
      [
        "gener",
        "ator"
      ],
      [
        ".",
        "')"
      ],
      [
        "se",
        "e"
      ],
      [
        "mo",
        "un"
      ],
      [
        ".",
        "\")"
      ],
      [
        "}",
        ","
      ],
      [
        "ke",
        "d"
      ],
      [
        "T",
        "E"
      ],
      [
        "path",
        "s"
      ],
      [
        "me",
        "ta"
      ],
      [
        "el",
        "d_"
      ],
      [
        "contain",
        "ing"
      ],
      [
        "config",
        "uration"
      ],
      [
        "c",
        "s"
      ],
      [
        "th",
        "resh"
      ],
      [
        "{}",
        "\"."
      ],
      [
        "olu",
        "me"
      ],
      [
        "oper",
        "ation"
      ],
      [
        "fi",
        "eld_"
      ],
      [
        "vi",
        "ces"
      ],
      [
        "reg",
        "ion"
      ],
      [
        "1",
        "6"
      ],
      [
        "lo",
        "ok"
      ],
      [
        "mo",
        "ve"
      ],
      [
        "twi",
        "lio"
      ],
      [
        "si",
        "ble"
      ],
      [
        "ste",
        "p"
      ],
      [
        "enumer",
        "ate"
      ],
      [
        "d",
        "on"
      ],
      [
        "th",
        "ing"
      ],
      [
        "message",
        "s"
      ],
      [
        "Ob",
        "ject"
      ],
      [
        "m",
        "_"
      ],
      [
        "ce",
        "ll"
      ],
      [
        "to",
        "col"
      ],
      [
        "r",
        "t"
      ],
      [
        "u",
        "le"
      ],
      [
        "data",
        "base"
      ],
      [
        "by",
        "te"
      ],
      [
        "_c",
        "all"
      ],
      [
        "buff",
        "er"
      ],
      [
        "}",
        "'."
      ],
      [
        "be",
        "en"
      ],
      [
        "map",
        "ping"
      ],
      [
        "en",
        "d_"
      ],
      [
        "ol",
        "d_"
      ],
      [
        "e",
        "mail"
      ],
      [
        "dif",
        "f"
      ],
      [
        "zer",
        "o"
      ],
      [
        "remo",
        "te"
      ],
      [
        "medi",
        "ator"
      ],
      [
        "M",
        "ess"
      ],
      [
        "requi",
        "red"
      ],
      [
        "event",
        "s"
      ],
      [
        "del",
        "ta"
      ],
      [
        "ti",
        "fi"
      ],
      [
        "_s",
        "id"
      ],
      [
        "sen",
        "sor"
      ],
      [
        "type",
        "_"
      ],
      [
        "gr",
        "am"
      ],
      [
        "No",
        "de"
      ],
      [
        "man",
        "ager"
      ],
      [
        "T",
        "Y"
      ],
      [
        "cl",
        "ust"
      ],
      [
        "G",
        "raph"
      ],
      [
        "c",
        "ation"
      ],
      [
        "s",
        "a"
      ],
      [
        "tot",
        "al"
      ],
      [
        "g",
        "_"
      ],
      [
        "num",
        "py"
      ],
      [
        "2",
        "5"
      ],
      [
        "<",
        "="
      ],
      [
        "ut",
        "f"
      ],
      [
        "ver",
        "se"
      ],
      [
        "C",
        "ol"
      ],
      [
        "su",
        "ccess"
      ],
      [
        "i",
        "ce"
      ],
      [
        "re",
        "cei"
      ],
      [
        "ver",
        "y"
      ],
      [
        "Mess",
        "age"
      ],
      [
        "k",
        "ind"
      ],
      [
        "sen",
        "d"
      ],
      [
        "Str",
        "ing"
      ],
      [
        "raise",
        "s"
      ],
      [
        "pass",
        "word"
      ],
      [
        "fa",
        "ctor"
      ],
      [
        "scal",
        "e"
      ],
      [
        "p",
        "en"
      ],
      [
        "ta",
        "gs"
      ],
      [
        "C",
        "all"
      ],
      [
        "tex",
        "t_"
      ],
      [
        "pro",
        "j"
      ],
      [
        ":`",
        "~"
      ],
      [
        "sor",
        "ted"
      ],
      [
        "a",
        "wait"
      ],
      [
        "load",
        "_"
      ],
      [
        "gi",
        "str"
      ],
      [
        "record",
        "s"
      ],
      [
        "u",
        "d"
      ],
      [
        "he",
        "re"
      ],
      [
        "u",
        "th"
      ],
      [
        "ro",
        "l"
      ],
      [
        "ver",
        "ti"
      ],
      [
        "Con",
        "fig"
      ],
      [
        "conne",
        "ct"
      ],
      [
        "starts",
        "with"
      ],
      [
        "defin",
        "ed"
      ],
      [
        "S",
        "C"
      ],
      [
        "dis",
        "able"
      ],
      [
        "I",
        "O"
      ],
      [
        "pro",
        "ject"
      ],
      [
        "so",
        "me"
      ],
      [
        "a",
        "in"
      ],
      [
        "are",
        "a"
      ],
      [
        "fa",
        "ctory"
      ],
      [
        "HT",
        "TP"
      ],
      [
        "exp",
        "ression"
      ],
      [
        ":",
        "]"
      ],
      [
        "D",
        "o"
      ],
      [
        "or",
        "s"
      ],
      [
        "In",
        "dex"
      ],
      [
        "in",
        "valid"
      ],
      [
        "action",
        "s"
      ],
      [
        "tra",
        "ck"
      ],
      [
        "t",
        "wo"
      ],
      [
        ">",
        "="
      ],
      [
        "ac",
        "tive"
      ],
      [
        "x",
        "ml"
      ],
      [
        "c",
        "ustom"
      ],
      [
        "U",
        "L"
      ],
      [
        "row",
        "s"
      ],
      [
        "li",
        "ty"
      ],
      [
        "Py",
        "thon"
      ],
      [
        "B",
        "u"
      ],
      [
        "e",
        "qu"
      ],
      [
        "v",
        "olume"
      ],
      [
        "Q",
        "u"
      ],
      [
        "w",
        "indow"
      ],
      [
        "B",
        "y"
      ],
      [
        "en",
        "v"
      ],
      [
        "sty",
        "le"
      ],
      [
        "as",
        "sign"
      ],
      [
        "component",
        "s"
      ],
      [
        "d",
        "um"
      ],
      [
        "create",
        "d"
      ],
      [
        "exec",
        "ute"
      ],
      [
        "id",
        "s"
      ],
      [
        "O",
        "n"
      ],
      [
        "on",
        "_"
      ],
      [
        "At",
        "tribu"
      ],
      [
        "sub",
        "scription"
      ],
      [
        "multi",
        "ple"
      ],
      [
        "coun",
        "ts"
      ],
      [
        "Num",
        "ber"
      ],
      [
        "di",
        "stance"
      ],
      [
        "S",
        "S"
      ],
      [
        "ct",
        "x"
      ],
      [
        "key",
        "word"
      ],
      [
        "attr",
        "s"
      ],
      [
        "3",
        "2"
      ],
      [
        "ction",
        "s"
      ],
      [
        "v",
        "id"
      ],
      [
        "base",
        "d"
      ],
      [
        "dep",
        "th"
      ],
      [
        "re",
        "ply"
      ],
      [
        "ar",
        "ti"
      ],
      [
        "el",
        "l"
      ],
      [
        "sho",
        "w"
      ],
      [
        "ample",
        "s"
      ],
      [
        "mo",
        "dif"
      ],
      [
        "Di",
        "ct"
      ],
      [
        "_",
        "h"
      ],
      [
        "_",
        "P"
      ],
      [
        "{}",
        "'."
      ],
      [
        "t",
        "mp"
      ],
      [
        "comp",
        "le"
      ],
      [
        "Ar",
        "ray"
      ],
      [
        "ang",
        "le"
      ],
      [
        "'",
        "\\"
      ],
      [
        "##",
        "##"
      ],
      [
        "vide",
        "o"
      ],
      [
        "ra",
        "g"
      ],
      [
        "ali",
        "as"
      ],
      [
        "en",
        "tries"
      ],
      [
        "an",
        "ti"
      ],
      [
        "und",
        "le"
      ],
      [
        "Key",
        "Error"
      ],
      [
        "b",
        "it"
      ],
      [
        "lang",
        "uage"
      ],
      [
        "ext",
        "ension"
      ],
      [
        "U",
        "ser"
      ],
      [
        "request",
        "s"
      ],
      [
        "fi",
        "ll"
      ],
      [
        "ca",
        "use"
      ],
      [
        "sco",
        "pe"
      ],
      [
        "string",
        "s"
      ],
      [
        "b",
        "atch"
      ],
      [
        "f",
        "s"
      ],
      [
        "Con",
        "ver"
      ],
      [
        "l",
        "d"
      ],
      [
        "s",
        "n"
      ],
      [
        "Data",
        "Frame"
      ],
      [
        "cal",
        "led"
      ],
      [
        "po",
        "ol"
      ],
      [
        "Con",
        "ne"
      ],
      [
        "I",
        "mp"
      ],
      [
        "set",
        "up"
      ],
      [
        "event_",
        "data"
      ],
      [
        "J",
        "ob"
      ],
      [
        "R",
        "O"
      ],
      [
        "m",
        "t"
      ],
      [
        "b",
        "ers"
      ],
      [
        "l",
        "ish"
      ],
      [
        "work",
        "flow"
      ],
      [
        "Con",
        "t"
      ],
      [
        "x",
        "y"
      ],
      [
        "fol",
        "low"
      ],
      [
        "S",
        "pec"
      ],
      [
        "if",
        "ic"
      ],
      [
        "lic",
        "ation"
      ],
      [
        "_",
        "n"
      ],
      [
        "igno",
        "re"
      ],
      [
        "D",
        "I"
      ],
      [
        "sign",
        "ature"
      ],
      [
        "_",
        "str"
      ],
      [
        "it",
        "u"
      ],
      [
        "Option",
        "al"
      ],
      [
        "i",
        "ther"
      ],
      [
        "]",
        "]"
      ],
      [
        "if",
        "y"
      ],
      [
        "lay",
        "er"
      ],
      [
        "mer",
        "ge"
      ],
      [
        "Attribu",
        "te"
      ],
      [
        "a",
        "ke"
      ],
      [
        "o",
        "se"
      ],
      [
        "_s",
        "olution"
      ],
      [
        "IN",
        "G"
      ],
      [
        "z",
        "one"
      ],
      [
        "al",
        "so"
      ],
      [
        "ext",
        "end"
      ],
      [
        "g",
        "h"
      ],
      [
        "parser_",
        "mediator"
      ],
      [
        "y",
        "ear"
      ],
      [
        "the",
        "m"
      ],
      [
        "ex",
        "pec"
      ],
      [
        "b",
        "ar"
      ],
      [
        "e",
        "st"
      ],
      [
        "stat",
        "us_"
      ],
      [
        "whe",
        "ther"
      ],
      [
        "thro",
        "at"
      ],
      [
        "_",
        "class"
      ],
      [
        "p",
        "k"
      ],
      [
        "fi",
        "t"
      ],
      [
        "seri",
        "aliz"
      ],
      [
        "cur",
        "sor"
      ],
      [
        "doc",
        "ument"
      ],
      [
        "f",
        "etch"
      ],
      [
        "stri",
        "bu"
      ],
      [
        "o",
        "und"
      ],
      [
        "le",
        "ft"
      ],
      [
        "_",
        "code"
      ],
      [
        "d",
        "t"
      ],
      [
        "pe",
        "ct"
      ],
      [
        "mem",
        "ber"
      ],
      [
        "htt",
        "p"
      ],
      [
        "']",
        "['"
      ],
      [
        "re",
        "ct"
      ],
      [
        "uni",
        "ts"
      ],
      [
        "G",
        "ener"
      ],
      [
        "un",
        "it"
      ],
      [
        "Val",
        "id"
      ],
      [
        "S",
        "to"
      ],
      [
        "create",
        "_"
      ],
      [
        "mb",
        "ol"
      ],
      [
        "mon",
        "th"
      ],
      [
        "F",
        "a"
      ],
      [
        "U",
        "N"
      ],
      [
        "t",
        "t"
      ],
      [
        "me",
        "d"
      ],
      [
        "par",
        "ts"
      ],
      [
        "coord",
        "in"
      ],
      [
        "coun",
        "t_"
      ],
      [
        "sup",
        "ported"
      ],
      [
        "'",
        "{"
      ],
      [
        "I",
        "t"
      ],
      [
        "we",
        "igh"
      ],
      [
        "update",
        "_"
      ],
      [
        "0",
        "x"
      ],
      [
        "k",
        "nown"
      ],
      [
        "')",
        "."
      ],
      [
        "sk",
        "ip"
      ],
      [
        "c",
        "ord"
      ],
      [
        "G",
        "E"
      ],
      [
        "struct",
        "ure"
      ],
      [
        "Up",
        "date"
      ],
      [
        "-+-+-+-+-+-+-+-+",
        "-+-+-+-+-+-+-+-+"
      ],
      [
        "c",
        "ap"
      ],
      [
        "temp",
        "er"
      ],
      [
        "fin",
        "d_"
      ],
      [
        "i",
        "e"
      ],
      [
        "br",
        "anch"
      ],
      [
        "p",
        "id"
      ],
      [
        "dim",
        "ension"
      ],
      [
        "al",
        "og"
      ],
      [
        "A",
        "p"
      ],
      [
        "_",
        "config"
      ],
      [
        "htt",
        "ps"
      ],
      [
        "se",
        "cre"
      ],
      [
        "ex",
        "t_"
      ],
      [
        "requi",
        "re"
      ],
      [
        "_",
        "state"
      ],
      [
        "up",
        "per"
      ],
      [
        "M",
        "L"
      ],
      [
        "tr",
        "ac"
      ],
      [
        "mat",
        "h"
      ],
      [
        "An",
        "aly"
      ],
      [
        "O",
        "r"
      ],
      [
        "i",
        "al"
      ],
      [
        "nd",
        "array"
      ],
      [
        "wri",
        "ter"
      ],
      [
        "s",
        "ort"
      ],
      [
        "ar",
        "r"
      ],
      [
        "read",
        "er"
      ],
      [
        "path",
        "_"
      ],
      [
        "b",
        "ra"
      ],
      [
        "ex",
        "clude"
      ],
      [
        "dis",
        "play"
      ],
      [
        "exist",
        "ing"
      ],
      [
        "TO",
        "DO"
      ],
      [
        "st",
        "and"
      ],
      [
        "min",
        "_"
      ],
      [
        "_",
        "C"
      ],
      [
        "util",
        "s"
      ],
      [
        "en",
        "able"
      ],
      [
        "ex",
        "ample"
      ],
      [
        "enti",
        "ty"
      ],
      [
        "A",
        "D"
      ],
      [
        "p",
        "and"
      ],
      [
        "li",
        "m"
      ],
      [
        "fla",
        "gs"
      ],
      [
        "dire",
        "ct"
      ],
      [
        "Defa",
        "ult"
      ],
      [
        "ho",
        "ok"
      ],
      [
        "bin",
        "ary"
      ],
      [
        "ab",
        "i"
      ],
      [
        "has",
        "attr"
      ],
      [
        "element",
        "s"
      ],
      [
        "M",
        "P"
      ],
      [
        "f",
        "ut"
      ],
      [
        "m",
        "ary"
      ],
      [
        "tr",
        "ue"
      ],
      [
        "le",
        "ss"
      ],
      [
        "un",
        "set"
      ],
      [
        "F",
        "A"
      ],
      [
        "pl",
        "an"
      ],
      [
        "ro",
        "o"
      ],
      [
        "ri",
        "ght"
      ],
      [
        "by",
        "_"
      ],
      [
        "c",
        "ip"
      ],
      [
        "le",
        "m"
      ],
      [
        "temper",
        "ature"
      ],
      [
        "C",
        "l"
      ],
      [
        "as",
        "on"
      ],
      [
        "ge",
        "st"
      ],
      [
        "St",
        "ate"
      ],
      [
        "or",
        "g"
      ],
      [
        "ad",
        "ded"
      ],
      [
        "du",
        "ce"
      ],
      [
        "W",
        "ri"
      ],
      [
        "other",
        "wise"
      ],
      [
        "de",
        "s"
      ],
      [
        "la",
        "st_"
      ],
      [
        "ad",
        "er"
      ],
      [
        "co",
        "ok"
      ],
      [
        "bo",
        "ok"
      ],
      [
        "char",
        "act"
      ],
      [
        "time",
        "_"
      ],
      [
        "ole",
        "an"
      ],
      [
        "p",
        "res"
      ],
      [
        "p",
        "end"
      ],
      [
        "coun",
        "ter"
      ],
      [
        "(",
        "{"
      ],
      [
        "ro",
        "ute"
      ],
      [
        "app",
        "ly"
      ],
      [
        "M",
        "A"
      ],
      [
        "_",
        "_name"
      ],
      [
        "pre",
        "vi"
      ],
      [
        "fa",
        "iled"
      ],
      [
        "c",
        "f"
      ],
      [
        "l",
        "on"
      ],
      [
        "fa",
        "ces"
      ],
      [
        "comm",
        "it"
      ],
      [
        "Se",
        "e"
      ],
      [
        "Bu",
        "ild"
      ],
      [
        "R",
        "o"
      ],
      [
        "auth",
        "enti"
      ],
      [
        "l",
        "ong"
      ],
      [
        "bu",
        "ild_"
      ],
      [
        "verti",
        "ces"
      ],
      [
        "S",
        "ub"
      ],
      [
        "N",
        "O"
      ],
      [
        "_",
        "map"
      ],
      [
        "data",
        "_type"
      ],
      [
        "hel",
        "p"
      ],
      [
        "\"",
        "):"
      ],
      [
        "m",
        "u"
      ],
      [
        "tar",
        "gets"
      ],
      [
        "r",
        "id"
      ],
      [
        "ind",
        "ent"
      ],
      [
        "lib",
        "r"
      ],
      [
        "A",
        "uth"
      ],
      [
        "b",
        "_"
      ],
      [
        "qu",
        "o"
      ],
      [
        "H",
        "and"
      ],
      [
        "di",
        "st"
      ],
      [
        "contain",
        "s"
      ],
      [
        "b",
        "l"
      ],
      [
        "s",
        "in"
      ],
      [
        "de",
        "red"
      ],
      [
        "red",
        "enti"
      ],
      [
        "__name",
        "__"
      ],
      [
        "su",
        "f"
      ],
      [
        "clas",
        "ses"
      ],
      [
        "child",
        "ren"
      ],
      [
        "h",
        "a"
      ],
      [
        "for",
        "_"
      ],
      [
        "repre",
        "sen"
      ],
      [
        "pro",
        "tocol"
      ],
      [
        "sen",
        "d_"
      ],
      [
        "St",
        "at"
      ],
      [
        "s",
        "v"
      ],
      [
        "No",
        "te"
      ],
      [
        "'",
        "-"
      ],
      [
        "]",
        "))"
      ],
      [
        "at",
        "ures"
      ],
      [
        "up",
        "lic"
      ],
      [
        "arg",
        "v"
      ],
      [
        "su",
        "ch"
      ],
      [
        "pi",
        "x"
      ],
      [
        "c",
        "ro"
      ],
      [
        "al",
        "g"
      ],
      [
        "ar",
        "d_"
      ],
      [
        "_id",
        "s"
      ],
      [
        "f",
        "p"
      ],
      [
        "error",
        "_"
      ],
      [
        "iter",
        "able"
      ],
      [
        "categ",
        "ory"
      ],
      [
        "res",
        "p"
      ],
      [
        "ab",
        "o"
      ],
      [
        "']",
        ":"
      ],
      [
        "sa",
        "fe"
      ],
      [
        "4",
        "0"
      ],
      [
        "e",
        "val"
      ],
      [
        "w",
        "er"
      ],
      [
        "V",
        "er"
      ],
      [
        "e",
        "ither"
      ],
      [
        "un",
        "t"
      ],
      [
        "end",
        "s"
      ],
      [
        "so",
        "cket"
      ],
      [
        "comp",
        "lete"
      ],
      [
        "de",
        "cor"
      ],
      [
        "i",
        "ve"
      ],
      [
        "an",
        "k"
      ],
      [
        "ate",
        "g"
      ],
      [
        "o",
        "wn"
      ],
      [
        "parti",
        "tion"
      ],
      [
        "g",
        "re"
      ],
      [
        "i",
        "z"
      ],
      [
        "de",
        "sc"
      ],
      [
        "and",
        "_"
      ],
      [
        "ex",
        "it"
      ],
      [
        "max",
        "imum"
      ],
      [
        "secon",
        "d"
      ],
      [
        "the",
        "y"
      ],
      [
        "defa",
        "ults"
      ],
      [
        "c",
        "y"
      ],
      [
        "H",
        "E"
      ],
      [
        "_",
        "length"
      ],
      [
        "ta",
        "ch"
      ],
      [
        "query",
        "_"
      ],
      [
        "ug",
        "h"
      ],
      [
        "cle",
        "an"
      ],
      [
        "TI",
        "ON"
      ],
      [
        "j",
        "av"
      ],
      [
        "r",
        "_"
      ],
      [
        "_c",
        "ache"
      ],
      [
        "pro",
        "p"
      ],
      [
        "In",
        "fo"
      ],
      [
        "stat",
        "s"
      ],
      [
        "ro",
        "le"
      ],
      [
        "variable",
        "s"
      ],
      [
        "pub",
        "lic"
      ],
      [
        "re",
        "port"
      ],
      [
        "obj",
        "ect_"
      ],
      [
        "our",
        "ces"
      ],
      [
        "Ser",
        "vice"
      ],
      [
        "l",
        "u"
      ],
      [
        "repre",
        "sent"
      ],
      [
        "_",
        "format"
      ],
      [
        "pat",
        "ch"
      ],
      [
        "pand",
        "as"
      ],
      [
        "A",
        "s"
      ],
      [
        "T",
        "ask"
      ],
      [
        "s",
        "q"
      ],
      [
        "_type",
        "s"
      ],
      [
        "sr",
        "c"
      ],
      [
        "\"",
        "%"
      ],
      [
        "cont",
        "rol"
      ],
      [
        "inte",
        "ger"
      ],
      [
        "``",
        "."
      ],
      [
        "1",
        "5"
      ],
      [
        "per",
        "i"
      ],
      [
        "A",
        "c"
      ],
      [
        "P",
        "er"
      ],
      [
        "f",
        "n"
      ],
      [
        "pos",
        "sible"
      ],
      [
        "run",
        "ning"
      ],
      [
        "in",
        "ation"
      ],
      [
        "me",
        "try"
      ],
      [
        "ker",
        "nel"
      ],
      [
        "id",
        "_"
      ],
      [
        "Sto",
        "re"
      ],
      [
        "cor",
        "respon"
      ],
      [
        "e",
        "f"
      ],
      [
        "se",
        "par"
      ],
      [
        "Res",
        "pon"
      ],
      [
        "r",
        "y"
      ],
      [
        "h",
        "igh"
      ],
      [
        "6",
        "0"
      ],
      [
        "j",
        "ar"
      ],
      [
        "n",
        "er"
      ],
      [
        "or",
        "d_"
      ],
      [
        "sup",
        "er"
      ],
      [
        "enc",
        "ies"
      ],
      [
        "indi",
        "ces"
      ],
      [
        "C",
        "al"
      ],
      [
        "the",
        "ir"
      ],
      [
        "pa",
        "rent_"
      ],
      [
        "exec",
        "ut"
      ],
      [
        "r",
        "adi"
      ],
      [
        "si",
        "st"
      ],
      [
        "_c",
        "reate"
      ],
      [
        "_",
        "count"
      ],
      [
        "si",
        "ty"
      ],
      [
        "ta",
        "ke"
      ],
      [
        "can",
        "not"
      ],
      [
        "G",
        "ER"
      ],
      [
        "h",
        "ist"
      ],
      [
        "si",
        "mp"
      ],
      [
        "_",
        "read_"
      ],
      [
        "trans",
        "action"
      ],
      [
        "P",
        "re"
      ],
      [
        "op",
        "ts"
      ],
      [
        "Tr",
        "ans"
      ],
      [
        "method",
        "s"
      ],
      [
        "seg",
        "ment"
      ],
      [
        "trie",
        "ve"
      ],
      [
        "ri",
        "ver"
      ],
      [
        "inter",
        "face"
      ],
      [
        "di",
        "stribu"
      ],
      [
        "cli",
        "ck"
      ],
      [
        "oc",
        "i"
      ],
      [
        "bound",
        "s"
      ],
      [
        "al",
        "ph"
      ],
      [
        "s",
        "li"
      ],
      [
        "_",
        "number"
      ],
      [
        "f",
        "er"
      ],
      [
        "i",
        "de"
      ],
      [
        "sy",
        "m"
      ],
      [
        "l",
        "_"
      ],
      [
        "T",
        "R"
      ],
      [
        "at",
        "temp"
      ],
      [
        "as",
        "h"
      ],
      [
        "user",
        "_"
      ],
      [
        "write",
        "_"
      ],
      [
        "sco",
        "re"
      ],
      [
        "edge",
        "s"
      ],
      [
        "h",
        "ex"
      ],
      [
        "bo",
        "t"
      ],
      [
        "clust",
        "er"
      ],
      [
        "Pro",
        "cess"
      ],
      [
        "hand",
        "l"
      ],
      [
        "top",
        "ic"
      ],
      [
        "g",
        "it"
      ],
      [
        "ne",
        "igh"
      ],
      [
        "re",
        "d_"
      ],
      [
        "pre",
        "c"
      ],
      [
        "expec",
        "ted"
      ],
      [
        "C",
        "om"
      ],
      [
        "L",
        "I"
      ],
      [
        "m",
        "ut"
      ],
      [
        "specif",
        "y"
      ],
      [
        "wrap",
        "per"
      ],
      [
        "(",
        "**"
      ],
      [
        "I",
        "mage"
      ],
      [
        "po",
        "ly"
      ],
      [
        "ac",
        "ti"
      ],
      [
        "Lo",
        "g"
      ],
      [
        "pix",
        "el"
      ],
      [
        "un",
        "til"
      ],
      [
        "at",
        "er"
      ],
      [
        "Respon",
        "se"
      ],
      [
        "C",
        "lient"
      ],
      [
        "make",
        "_"
      ],
      [
        "std",
        "out"
      ],
      [
        "suf",
        "fix"
      ],
      [
        "O",
        "pen"
      ],
      [
        "bu",
        "f"
      ],
      [
        "are",
        "d"
      ],
      [
        "====",
        "===="
      ],
      [
        "ste",
        "ad"
      ],
      [
        "tx",
        "t"
      ],
      [
        "ex",
        "pr"
      ],
      [
        "pair",
        "s"
      ],
      [
        "ul",
        "ar"
      ],
      [
        "pro",
        "file"
      ],
      [
        "pub",
        "lish"
      ],
      [
        "mo",
        "d"
      ],
      [
        "\"",
        "],"
      ],
      [
        "U",
        "se"
      ],
      [
        "as",
        "_"
      ],
      [
        "v",
        "ate"
      ],
      [
        "fla",
        "g"
      ],
      [
        "c",
        "ar"
      ],
      [
        "fe",
        "rent"
      ],
      [
        ".",
        "\""
      ],
      [
        "D",
        "ate"
      ],
      [
        "p",
        "d"
      ],
      [
        "']",
        "["
      ],
      [
        "com",
        "ment"
      ],
      [
        "pl",
        "at"
      ],
      [
        "LOG",
        "GER"
      ],
      [
        "NA",
        "ME"
      ],
      [
        "Conver",
        "t"
      ],
      [
        "{",
        "\""
      ],
      [
        "tool",
        "s"
      ],
      [
        "st",
        "der"
      ],
      [
        "ser",
        "v"
      ],
      [
        "valid",
        "ate"
      ],
      [
        "b",
        "undle"
      ],
      [
        "st",
        "ra"
      ],
      [
        "si",
        "ve"
      ],
      [
        "app",
        "lication"
      ],
      [
        "und",
        "er"
      ],
      [
        "B",
        "o"
      ],
      [
        "L",
        "A"
      ],
      [
        "match",
        "es"
      ],
      [
        "filter",
        "s"
      ],
      [
        "itu",
        "de"
      ],
      [
        "t",
        "or"
      ],
      [
        "add",
        "res"
      ],
      [
        "allow",
        "ed"
      ],
      [
        "tra",
        "ce"
      ],
      [
        "rel",
        "ative"
      ],
      [
        "bo",
        "olean"
      ],
      [
        "]",
        "['"
      ],
      [
        "moun",
        "t_"
      ],
      [
        "W",
        "or"
      ],
      [
        "po",
        "re"
      ],
      [
        "ly",
        "ph"
      ],
      [
        "filter",
        "_"
      ],
      [
        "sn",
        "ap"
      ],
      [
        "O",
        "P"
      ],
      [
        "tail",
        "s"
      ],
      [
        "m",
        "y"
      ],
      [
        "be",
        "cause"
      ],
      [
        "Par",
        "ser"
      ],
      [
        "c",
        "ard"
      ],
      [
        "h",
        "er"
      ],
      [
        "]",
        "):"
      ],
      [
        "e",
        "ff"
      ],
      [
        "ad",
        "ap"
      ],
      [
        "thresh",
        "old"
      ],
      [
        "inter",
        "n"
      ],
      [
        "loc",
        "al_"
      ],
      [
        "has",
        "_"
      ],
      [
        "thro",
        "ugh"
      ],
      [
        "mem",
        "ory"
      ],
      [
        "glob",
        "al"
      ],
      [
        "we",
        "ight"
      ],
      [
        "2",
        "00"
      ],
      [
        "Cl",
        "ass"
      ],
      [
        "libr",
        "ary"
      ],
      [
        "W",
        "i"
      ],
      [
        "d",
        "ro"
      ],
      [
        "co",
        "ver"
      ],
      [
        "cont",
        "ent_"
      ],
      [
        "parse",
        "d"
      ],
      [
        "Conne",
        "ction"
      ],
      [
        "no",
        "te"
      ],
      [
        "ver",
        "bo"
      ],
      [
        "D",
        "is"
      ],
      [
        "on",
        "t"
      ],
      [
        "ex",
        "pi"
      ],
      [
        "cor",
        "rect"
      ],
      [
        "g",
        "ra"
      ],
      [
        "content",
        "s"
      ],
      [
        "r",
        "g"
      ],
      [
        "))",
        ","
      ],
      [
        "e",
        "_"
      ],
      [
        "p",
        "lo"
      ],
      [
        "data",
        "set"
      ],
      [
        "ass",
        "oci"
      ],
      [
        "log",
        "_"
      ],
      [
        "plug",
        "in"
      ],
      [
        "d",
        "one"
      ],
      [
        "y",
        "stem"
      ],
      [
        "re",
        "qu"
      ],
      [
        "ca",
        "st"
      ],
      [
        "origin",
        "al"
      ],
      [
        "stder",
        "r"
      ],
      [
        "gener",
        "ate"
      ],
      [
        "w",
        "ant"
      ],
      [
        "col",
        "s"
      ],
      [
        "dif",
        "ferent"
      ],
      [
        "conver",
        "t"
      ],
      [
        "defini",
        "tion"
      ],
      [
        "plat",
        "form"
      ],
      [
        "i",
        "v"
      ],
      [
        "comp",
        "ute"
      ],
      [
        "Analy",
        "sis"
      ],
      [
        "l",
        "ap"
      ],
      [
        "in",
        "stead"
      ],
      [
        "we",
        "b"
      ],
      [
        "work",
        "er"
      ],
      [
        "lo",
        "a"
      ],
      [
        "r",
        "u"
      ],
      [
        "exec",
        "u"
      ],
      [
        "Q",
        "L"
      ],
      [
        "re",
        "ason"
      ],
      [
        "with",
        "in"
      ],
      [
        "ho",
        "w"
      ],
      [
        ".",
        ","
      ],
      [
        "F",
        "ind"
      ],
      [
        "do",
        "t"
      ],
      [
        "n",
        "ext_"
      ],
      [
        "ap",
        "pro"
      ],
      [
        "environ",
        "ment"
      ],
      [
        "ter",
        "m"
      ],
      [
        "red",
        "u"
      ],
      [
        "depend",
        "encies"
      ],
      [
        "defini",
        "tions"
      ],
      [
        "si",
        "tion"
      ],
      [
        "i",
        "er"
      ],
      [
        "l",
        "ation"
      ],
      [
        "s",
        "ol"
      ],
      [
        "ic",
        "_"
      ],
      [
        "ang",
        "o"
      ],
      [
        "access",
        "_token"
      ],
      [
        "Cont",
        "ent"
      ],
      [
        "_of",
        "_"
      ],
      [
        "fe",
        "ature"
      ],
      [
        "Lo",
        "ad"
      ],
      [
        "o",
        "d_"
      ],
      [
        "ro",
        "ll"
      ],
      [
        "ic",
        "al"
      ],
      [
        "FA",
        "UL"
      ],
      [
        "f",
        "name"
      ],
      [
        "list",
        "_"
      ],
      [
        "dire",
        "ction"
      ],
      [
        "color",
        "s"
      ],
      [
        "sele",
        "ct"
      ],
      [
        "=",
        "["
      ],
      [
        "T",
        "ext"
      ],
      [
        "me",
        "as"
      ],
      [
        "with",
        "out"
      ],
      [
        "p",
        "n"
      ],
      [
        "res",
        "ult_"
      ],
      [
        "por",
        "ts"
      ],
      [
        "inst",
        "all"
      ],
      [
        "is",
        "s"
      ],
      [
        "di",
        "ct_"
      ],
      [
        "co",
        "uld"
      ],
      [
        "w",
        "d"
      ],
      [
        "an",
        "t_"
      ],
      [
        "DE",
        "FAUL"
      ],
      [
        "vi",
        "ty"
      ],
      [
        "ER",
        "_"
      ],
      [
        "weigh",
        "ts"
      ],
      [
        "e",
        "very"
      ],
      [
        "de",
        "c"
      ],
      [
        "su",
        "me"
      ],
      [
        "look",
        "up"
      ],
      [
        "in",
        "clu"
      ],
      [
        "In",
        "ter"
      ],
      [
        "coord",
        "s"
      ],
      [
        "ific",
        "ation"
      ],
      [
        "po",
        "res"
      ],
      [
        "In",
        "put"
      ],
      [
        "_c",
        "ur"
      ],
      [
        "Ar",
        "g"
      ],
      [
        "G",
        "ro"
      ],
      [
        "re",
        "po"
      ],
      [
        "pro",
        "ces"
      ],
      [
        "ne",
        "g"
      ],
      [
        "im",
        "en"
      ],
      [
        "1",
        "1"
      ],
      [
        "_",
        "args"
      ],
      [
        "ti",
        "le"
      ],
      [
        "norm",
        "al"
      ],
      [
        "de",
        "le"
      ],
      [
        "un",
        "pack"
      ],
      [
        "feren",
        "ces"
      ],
      [
        "raw",
        "_"
      ],
      [
        "re",
        "cur"
      ],
      [
        "ke",
        "ep"
      ],
      [
        "call",
        "able"
      ],
      [
        "T",
        "A"
      ],
      [
        "val",
        "s"
      ],
      [
        "po",
        "int_"
[...]
