{
  "version": "1.0",
  "truncation": null,
  "padding": null,
  "added_tokens": [
    {
      "id": 0,
      "content": "<pad>",
      "single_word": false,
      "lstrip": false,
      "rstrip": false,
      "normalized": false,
      "special": true
    },
    {
      "id": 1,
      "content": "<sos>",
      "single_word": false,
      "lstrip": false,
      "rstrip": false,
      "normalized": false,
      "special": true
    },
    {
      "id": 2,
      "content": "<eos>",
      "single_word": false,
      "lstrip": false,
      "rstrip": false,
      "normalized": false,
      "special": true
    },
    {
      "id": 3,
      "content": "<unk>",
      "single_word": false,
      "lstrip": false,
      "rstrip": false,
      "normalized": false,
      "special": true
    }
  ],
  "normalizer": null,
  "pre_tokenizer": {
    "type": "Whitespace"
  },
  "post_processor": null,
  "decoder": null,
  "model": {
    "type": "BPE",
    "dropout": null,
    "unk_token": "<unk>",
    "continuing_subword_prefix": null,
    "end_of_word_suffix": null,
    "fuse_unk": false,
    "byte_fallback": false,
    "ignore_merges": false,
    "vocab": {
      "<pad>": 0,
      "<sos>": 1,
      "<eos>": 2,
      "<unk>": 3,
      "!": 4,
      "\"": 5,
      "#": 6,
      "$": 7,
      "%": 8,
      "&": 9,
      "'": 10,
      "(": 11,
      ")": 12,
      "*": 13,
      "+": 14,
      ",": 15,
      "-": 16,
      ".": 17,
      "/": 18,
      "0": 19,
      "1": 20,
      "2": 21,
      "3": 22,
      "4": 23,
      "5": 24,
      "6": 25,
      "7": 26,
      "8": 27,
      "9": 28,
      ":": 29,
      ";": 30,
      "<": 31,
      "=": 32,
      ">": 33,
      "?": 34,
      "@": 35,
      "A": 36,
      "B": 37,
      "C": 38,
      "D": 39,
      "E": 40,
      "F": 41,
      "G": 42,
      "H": 43,
      "I": 44,
      "J": 45,
      "K": 46,
      "L": 47,
      "M": 48,
      "N": 49,
      "O": 50,
      "P": 51,
      "Q": 52,
      "R": 53,
      "S": 54,
      "T": 55,
      "U": 56,
      "V": 57,
      "W": 58,
      "X": 59,
      "Y": 60,
      "Z": 61,
      "[": 62,
      "\\": 63,
      "]": 64,
      "^": 65,
      "_": 66,
      "`": 67,
      "a": 68,
      "b": 69,
      "c": 70,
      "d": 71,
      "e": 72,
      "f": 73,
      "g": 74,
      "h": 75,
      "i": 76,
      "j": 77,
      "k": 78,
      "l": 79,
      "m": 80,
      "n": 81,
      "o": 82,
      "p": 83,
      "q": 84,
      "r": 85,
      "s": 86,
      "t": 87,
      "u": 88,
      "v": 89,
      "w": 90,
      "x": 91,
      "y": 92,
      "z": 93,
      "{": 94,
      "|": 95,
      "}": 96,
      "~": 97,
      "©": 98,
      "®": 99,
      "°": 100,
      "±": 101,
      "²": 102,
      "³": 103,
      "µ": 104,
      "·": 105,
      "¸": 106,
      "º": 107,
      "»": 108,
      "¼": 109,
      "½": 110,
      "¾": 111,
      "Ì": 112,
      "Ô": 113,
      "×": 114,
      "Ø": 115,
      "Ü": 116,
      "ß": 117,
      "à": 118,
      "á": 119,
      "â": 120,
      "ä": 121,
      "å": 122,
      "ç": 123,
      "é": 124,
      "ê": 125,
      "ì": 126,
      "í": 127,
      "ñ": 128,
      "ó": 129,
      "ô": 130,
      "ö": 131,
      "ú": 132,
      "ü": 133,
      "đ": 134,
      "ĩ": 135,
      "ư": 136,
      "ǝ": 137,
      "Α": 138,
      "Κ": 139,
      "Μ": 140,
      "δ": 141,
      "θ": 142,
      "λ": 143,
      "μ": 144,
      "ρ": 145,
      "σ": 146,
      "τ": 147,
      "Б": 148,
      "В": 149,
      "И": 150,
      "а": 151,
      "б": 152,
      "в": 153,
      "г": 154,
      "д": 155,
      "е": 156,
      "ж": 157,
      "и": 158,
      "й": 159,
      "к": 160,
      "л": 161,
      "н": 162,
      "о": 163,
      "п": 164,
      "р": 165,
      "с": 166,
      "т": 167,
      "у": 168,
      "ш": 169,
      "ы": 170,
      "ь": 171,
      "я": 172,
      "і": 173,
      "إ": 174,
      "ا": 175,
      "ة": 176,
      "ت": 177,
      "ج": 178,
      "ح": 179,
      "د": 180,
      "ز": 181,
      "ش": 182,
      "ك": 183,
      "ل": 184,
      "م": 185,
      "ن": 186,
      "و": 187,
      "ي": 188,
      "द": 189,
      "न": 190,
      "ह": 191,
      "ि": 192,
      "ी": 193,
      "्": 194,
      "অ": 195,
      "ম": 196,
      "য": 197,
      "স": 198,
      "়": 199,
      "া": 200,
      "ী": 201,
      "ก": 202,
      "ง": 203,
      "จ": 204,
      "ช": 205,
      "ซ": 206,
      "ณ": 207,
      "น": 208,
      "ย": 209,
      "ร": 210,
      "ฤ": 211,
      "ว": 212,
      "ษ": 213,
      "ส": 214,
      "ห": 215,
      "อ": 216,
      "ั": 217,
      "า": 218,
      "ี": 219,
      "เ": 220,
      "ạ": 221,
      "ả": 222,
      "ế": 223,
      "ể": 224,
      "ệ": 225,
      "ị": 226,
      "ổ": 227,
      "ờ": 228,
      "ở": 229,
      "ợ": 230,
      "ủ": 231,
      "ữ": 232,
      "ự": 233,
      "‐": 234,
      "–": 235,
      "—": 236,
      "‘": 237,
      "’": 238,
      "“": 239,
      "”": 240,
      "…": 241,
      "⁶": 242,
      "℃": 243,
      "™": 244,
      "→": 245,
      "↦": 246,
      "⇒": 247,
      "∂": 248,
      "∈": 249,
      "∞": 250,
      "≤": 251,
      "≥": 252,
      "☺": 253,
      "イ": 254,
      "ギ": 255,
      "シ": 256,
      "ス": 257,
      "ョ": 258,
      "リ": 259,
      "ー": 260,
      "下": 261,
      "世": 262,
      "伯": 263,
      "你": 264,
      "信": 265,
      "值": 266,
      "关": 267,
      "分": 268,
      "列": 269,
      "取": 270,
      "回": 271,
      "国": 272,
      "國": 273,
      "好": 274,
      "字": 275,
      "州": 276,
      "应": 277,
      "廣": 278,
      "式": 279,
      "息": 280,
      "据": 281,
      "文": 282,
      "显": 283,
      "柏": 284,
      "根": 285,
      "格": 286,
      "界": 287,
      "的": 288,
      "相": 289,
      "示": 290,
      "符": 291,
      "簫": 292,
      "类": 293,
      "納": 294,
      "纳": 295,
      "英": 296,
      "获": 297,
      "萧": 298,
      "表": 299,
      "話": 300,
      "語": 301,
      "该": 302,
      "语": 303,
      "返": 304,
      "（": 305,
      "）": 306,
      "，": 307,
      "😁": 308,
      "th": 309,
      "in": 310,
      "re": 311,
      "on": 312,
      "er": 313,
      "at": 314,
      "the": 315,
      "--": 316,
      "or": 317,
      "st": 318,
      "en": 319,
      "ar": 320,
      "an": 321,
      "es": 322,
      "al": 323,
      "ed": 324,
      "ion": 325,
      "am": 326,
      "et": 327,
      "is": 328,
      "to": 329,
      "ct": 330,
      "of": 331,
      "le": 332,
      "ur": 333,
      "ing": 334,
      "as": 335,
      "----": 336,
      "it": 337,
      "ro": 338,
      "de": 339,
      "fi": 340,
      "ent": 341,
      "co": 342,
      "par": 343,
      "urn": 344,
      "pe": 345,
      "he": 346,
      "and": 347,
      "for": 348,
      "ce": 349,
      "li": 350,
      "un": 351,
      "se": 352,
      "lo": 353,
      "str": 354,
      "ut": 355,
      "param": 356,
      "ch": 357,
      "ul": 358,
      "ue": 359,
      "wi": 360,
      "di": 361,
      "be": 362,
      "con": 363,
      "res": 364,
      "ex": 365,
      "ad": 366,
      "um": 367,
      "ty": 368,
      "ra": 369,
      "im": 370,
      "ation": 371,
      "ag": 372,
      "ret": 373,
      "ect": 374,
      "ame": 375,
      "int": 376,
      "ate": 377,
      "val": 378,
      "no": 379,
      "id": 380,
      "ers": 381,
      "all": 382,
      "urns": 383,
      "Ret": 384,
      "pt": 385,
      "us": 386,
      "``": 387,
      "The": 388,
      "ob": 389,
      "-+": 390,
      "type": 391,
      "ri": 392,
      "ction": 393,
      "if": 394,
      "-+-+": 395,
      "ab": 396,
      "iv": 397,
      "pa": 398,
      "ass": 399,
      "ck": 400,
      "po": 401,
      "dat": 402,
      "ke": 403,
      "ject": 404,
      "mo": 405,
      "ess": 406,
      "ult": 407,
      "up": 408,
      "with": 409,
      "pro": 410,
      "list": 411,
      "ll": 412,
      "ma": 413,
      "rom": 414,
      "Returns": 415,
      "ol": 416,
      "from": 417,
      "age": 418,
      "name": 419,
      "ly": 420,
      "ption": 421,
      "cl": 422,
      "fa": 423,
      "return": 424,
      "me": 425,
      "that": 426,
      "ver": 427,
      ">>": 428,
      "com": 429,
      "object": 430,
      "per": 431,
      "file": 432,
      "one": 433,
      "):": 434,
      "--------": 435,
      "not": 436,
      "this": 437,
      "il": 438,
      "ci": 439,
      "are": 440,
      "em": 441,
      "bo": 442,
      "string": 443,
      "value": 444,
      "by": 445,
      "arg": 446,
      "wh": 447,
      "pl": 448,
      "data": 449,
      "cont": 450,
      "ig": 451,
      "qu": 452,
      "el": 453,
      ":`": 454,
      "If": 455,
      "able": 456,
      "Par": 457,
      "ext": 458,
      "ic": 459,
      "su": 460,
      "ser": 461,
      "form": 462,
      "stan": 463,
      "ren": 464,
      "ord": 465,
      "will": 466,
      "end": 467,
      "vi": 468,
      "key": 469,
      "ment": 470,
      "spe": 471,
      "set": 472,
      "ap": 473,
      "eters": 474,
      "tr": 475,
      "do": 476,
      "red": 477,
      "ther": 478,
      "ne": 479,
      "ist": 480,
      "iven": 481,
      "ime": 482,
      "-+-+-+-+": 483,
      "fun": 484,
      "put": 485,
      "class": 486,
      "ort": 487,
      "ho": 488,
      "Th": 489,
      "fault": 490,
      "ray": 491,
      "path": 492,
      "In": 493,
      "out": 494,
      "iz": 495,
      "ror": 496,
      "ve": 497,
      "so": 498,
      "od": 499,
      "ter": 500,
      "py": 501,
      "given": 502,
      "que": 503,
      "Ar": 504,
      "..": 505,
      "ary": 506,
      "ac": 507,
      "option": 508,
      "This": 509,
      "ain": 510,
      "meth": 511,
      "Param": 512,
      "num": 513,
      "ated": 514,
      "stance": 515,
      "we": 516,
      "Parameters": 517,
      "function": 518,
      "dict": 519,
      "ber": 520,
      "array": 521,
      "Re": 522,
      "ang": 523,
      "call": 524,
      "pon": 525,
      "ure": 526,
      "None": 527,
      "cifi": 528,
      "Tr": 529,
      "gs": 530,
      "Con": 531,
      "port": 532,
      "----------": 533,
      "cess": 534,
      ">>>": 535,
      "method": 536,
      "default": 537,
      "ine": 538,
      "ents": 539,
      "time": 540,
      "fil": 541,
      "fo": 542,
      "ple": 543,
      "mat": 544,
      "specifi": 545,
      "code": 546,
      "pres": 547,
      "can": 548,
      "cur": 549,
      "==": 550,
      "but": 551,
      "und": 552,
      "whi": 553,
      "ive": 554,
      "',": 555,
      "rent": 556,
      "unt": 557,
      "flo": 558,
      "returns": 559,
      "quest": 560,
      "Args": 561,
      "add": 562,
      "ay": 563,
      "om": 564,
      "ase": 565,
      "which": 566,
      "ot": 567,
      "ust": 568,
      "col": 569,
      "ork": 570,
      "valu": 571,
      "ht": 572,
      "use": 573,
      "ha": 574,
      "sc": 575,
      "True": 576,
      "point": 577,
      "ies": 578,
      "ity": 579,
      "ach": 580,
      "ces": 581,
      "Er": 582,
      "Error": 583,
      "del": 584,
      "fe": 585,
      "fig": 586,
      "used": 587,
      "number": 588,
      "ates": 589,
      "ition": 590,
      "sub": 591,
      "ans": 592,
      "ator": 593,
      "rtype": 594,
      "work": 595,
      "contain": 596,
      "ack": 597,
      "values": 598,
      "sion": 599,
      "Ex": 600,
      "------": 601,
      "att": 602,
      "new": 603,
      "Return": 604,
      "request": 605,
      "pre": 606,
      "ener": 607,
      "des": 608,
      "ev": 609,
      "ial": 610,
      "read": 611,
      "optional": 612,
      "ds": 613,
      "uld": 614,
      "ph": 615,
      "pi": 616,
      "mess": 617,
      "float": 618,
      "ask": 619,
      "ory": 620,
      "ises": 621,
      "inter": 622,
      "load": 623,
      "cation": 624,
      "low": 625,
      "user": 626,
      "cre": 627,
      "vice": 628,
      "sho": 629,
      "art": 630,
      "ign": 631,
      "act": 632,
      "rect": 633,
      "specified": 634,
      "respon": 635,
      "De": 636,
      "ant": 637,
      "result": 638,
      "fin": 639,
      "ize": 640,
      "bool": 641,
      "instance": 642,
      "ata": 643,
      "00": 644,
      "-+-+-+-+-+-+-+-+": 645,
      "':": 646,
      "nam": 647,
      "urce": 648,
      "-------": 649,
      "its": 650,
      "argum": 651,
      "eter": 652,
      "rit": 653,
      "comm": 654,
      "pass": 655,
      "whe": 656,
      ").": 657,
      "has": 658,
      "ifi": 659,
      "config": 660,
      "line": 661,
      "app": 662,
      "alse": 663,
      "au": 664,
      "text": 665,
      "heck": 666,
      "diction": 667,
      "sy": 668,
      "back": 669,
      "other": 670,
      "pos": 671,
      "reg": 672,
      "te": 673,
      "Get": 674,
      "pr": 675,
      "count": 676,
      "op": 677,
      "valid": 678,
      "current": 679,
      "nect": 680,
      "cor": 681,
      "any": 682,
      "ise": 683,
      "ok": 684,
      "dex": 685,
      "uni": 686,
      "False": 687,
      "ID": 688,
      "uct": 689,
      "message": 690,
      "vers": 691,
      "get": 692,
      "ari": 693,
      "into": 694,
      "ry": 695,
      "ample": 696,
      "dictionary": 697,
      "ub": 698,
      "only": 699,
      "trans": 700,
      "min": 701,
      "ding": 702,
      "sing": 703,
      "av": 704,
      "direct": 705,
      "eng": 706,
      "like": 707,
      "each": 708,
      "ribut": 709,
      "pp": 710,
      "cord": 711,
      "when": 712,
      "should": 713,
      "input": 714,
      "cal": 715,
      "ally": 716,
      "then": 717,
      "vert": 718,
      "date": 719,
      "la": 720,
      "model": 721,
      "roup": 722,
      "ir": 723,
      "`.": 724,
      "log": 725,
      "error": 726,
      "fiel": 727,
      "item": 728,
      "si": 729,
      "tem": 730,
      "word": 731,
      "_id": 732,
      "index": 733,
      "...": 734,
      "ps": 735,
      "connect": 736,
      "Ad": 737,
      "Cre": 738,
      "lient": 739,
      "exist": 740,
      "present": 741,
      "ength": 742,
      "arget": 743,
      "qui": 744,
      "over": 745,
      "An": 746,
      "yo": 747,
      "Val": 748,
      "],": 749,
      "gener": 750,
      "names": 751,
      "Data": 752,
      "ery": 753,
      "gr": 754,
      "tup": 755,
      "obj": 756,
      "output": 757,
      "ken": 758,
      "group": 759,
      "version": 760,
      "ff": 761,
      "**": 762,
      "lement": 763,
      "attribut": 764,
      "ail": 765,
      "vid": 766,
      "match": 767,
      "proper": 768,
      "vari": 769,
      "Not": 770,
      "stat": 771,
      "_s": 772,
      "max": 773,
      "lot": 774,
      "_name": 775,
      "met": 776,
      "wn": 777,
      "run": 778,
      "response": 779,
      "ax": 780,
      "task": 781,
      "ence": 782,
      "state": 783,
      "St": 784,
      "Ra": 785,
      "les": 786,
      "AP": 787,
      "rest": 788,
      "bu": 789,
      "clu": 790,
      "ge": 791,
      "command": 792,
      "part": 793,
      "process": 794,
      "args": 795,
      "thon": 796,
      "ON": 797,
      "ard": 798,
      "using": 799,
      "====": 800,
      "rame": 801,
      "returned": 802,
      "have": 803,
      "ec": 804,
      "ful": 805,
      "node": 806,
      "action": 807,
      "()": 808,
      "feren": 809,
      "writ": 810,
      "Instance": 811,
      "format": 812,
      "lock": 813,
      "lic": 814,
      "token": 815,
      "target": 816,
      "ild": 817,
      "files": 818,
      "List": 819,
      "struct": 820,
      "du": 821,
      "iter": 822,
      "Set": 823,
      "edi": 824,
      "ations": 825,
      "fir": 826,
      "ens": 827,
      "start": 828,
      "')": 829,
      "ampl": 830,
      "indi": 831,
      "arch": 832,
      "ange": 833,
      "Se": 834,
      "must": 835,
      "ong": 836,
      "mis": 837,
      "20": 838,
      "client": 839,
      "umn": 840,
      "arguments": 841,
      "tuple": 842,
      "ress": 843,
      "dis": 844,
      "defin": 845,
      "element": 846,
      "unicode": 847,
      "provid": 848,
      "::": 849,
      "lio": 850,
      "ature": 851,
      "record": 852,
      "context": 853,
      "length": 854,
      "wilio": 855,
      "der": 856,
      "ste": 857,
      "row": 858,
      "ecut": 859,
      "pend": 860,
      "bas": 861,
      "raph": 862,
      "event": 863,
      "cri": 864,
      "Raises": 865,
      "10": 866,
      "For": 867,
      "lin": 868,
      "`,": 869,
      "parameter": 870,
      "query": 871,
      "remo": 872,
      "ip": 873,
      "you": 874,
      "check": 875,
      "reso": 876,
      "represent": 877,
      "column": 878,
      "ile": 879,
      "sign": 880,
      "tra": 881,
      "ident": 882,
      "service": 883,
      "ug": 884,
      "cul": 885,
      "Pro": 886,
      "first": 887,
      "Lo": 888,
      "net": 889,
      "wo": 890,
      "pace": 891,
      "sup": 892,
      "('": 893,
      "lib": 894,
      "API": 895,
      "scri": 896,
      "objects": 897,
      "Res": 898,
      "ream": 899,
      "twilio": 900,
      "ight": 901,
      "ble": 902,
      "ype": 903,
      "keys": 904,
      "raises": 905,
      ":`~": 906,
      "containing": 907,
      "where": 908,
      "bet": 909,
      "formation": 910,
      "Create": 911,
      "bel": 912,
      "ree": 913,
      "sel": 914,
      "\"\"": 915,
      "wise": 916,
      "sh": 917,
      "Default": 918,
      "ader": 919,
      "oper": 920,
      "inclu": 921,
      "ify": 922,
      "Add": 923,
      "field": 924,
      "Option": 925,
      "passed": 926,
      "ative": 927,
      "parameters": 928,
      "spec": 929,
      "hand": 930,
      "ception": 931,
      "image": 932,
      "cate": 933,
      "mit": 934,
      "requi": 935,
      "af": 936,
      "does": 937,
      "UR": 938,
      "ages": 939,
      "sequ": 940,
      "points": 941,
      "directory": 942,
      "Com": 943,
      "table": 944,
      "ension": 945,
      "ind": 946,
      "import": 947,
      "server": 948,
      "self": 949,
      "block": 950,
      "source": 951,
      "ename": 952,
      "was": 953,
      "fol": 954,
      "uration": 955,
      "provided": 956,
      "ger": 957,
      "Type": 958,
      "amples": 959,
      "imum": 960,
      "ween": 961,
      "order": 962,
      "\",": 963,
      "sim": 964,
      "between": 965,
      "),": 966,
      "single": 967,
      "Value": 968,
      "sed": 969,
      "same": 970,
      "tes": 971,
      "attribute": 972,
      "options": 973,
      "fore": 974,
      "information": 975,
      "ite": 976,
      "son": 977,
      "stream": 978,
      "rel": 979,
      "doc": 980,
      "cy": 981,
      "stri": 982,
      "sto": 983,
      "compon": 984,
      "ew": 985,
      "aly": 986,
      "En": 987,
      "sum": 988,
      "-+-+-+-+-+-+-+-+-+-+-+-+-+-+-+-+": 989,
      "ta": 990,
      "orm": 991,
      "allow": 992,
      "size": 993,
      "ting": 994,
      "pat": 995,
      "pes": 996,
      "bytes": 997,
      "ved": 998,
      "tag": 999,
      "stem": 1000,
      "fix": 1001,
      "ca": 1002,
      "JS": 1003,
      "rix": 1004,
      "Str": 1005,
      "htt": 1006,
      "pack": 1007,
      "api": 1008,
      "resource": 1009,
      "ded": 1010,
      "pty": 1011,
      "ors": 1012,
      "main": 1013,
      "pri": 1014,
      "bin": 1015,
      "depend": 1016,
      "descri": 1017,
      "ST": 1018,
      "ession": 1019,
      "JSON": 1020,
      "ference": 1021,
      "lect": 1022,
      "execut": 1023,
      "df": 1024,
      "account": 1025,
      "after": 1026,
      "sha": 1027,
      "found": 1028,
      "based": 1029,
      "ron": 1030,
      "connection": 1031,
      "Ser": 1032,
      "whether": 1033,
      "url": 1034,
      "Check": 1035,
      "kw": 1036,
      "//": 1037,
      "than": 1038,
      "may": 1039,
      "lev": 1040,
      "label": 1041,
      "HT": 1042,
      "argument": 1043,
      "medi": 1044,
      "thro": 1045,
      "stor": 1046,
      "mission": 1047,
      "ous": 1048,
      "nel": 1049,
      "ized": 1050,
      "filename": 1051,
      "identifi": 1052,
      "ual": 1053,
      "access": 1054,
      "print": 1055,
      "ole": 1056,
      "ert": 1057,
      "job": 1058,
      "pand": 1059,
      "matrix": 1060,
      "more": 1061,
      "status": 1062,
      "plot": 1063,
      "TP": 1064,
      "graph": 1065,
      "address": 1066,
      "filter": 1067,
      "mult": 1068,
      "v1": 1069,
      "created": 1070,
      "results": 1071,
      "two": 1072,
      "ailable": 1073,
      "pla": 1074,
      "esh": 1075,
      "__": 1076,
      "there": 1077,
      "entry": 1078,
      "Name": 1079,
      "ties": 1080,
      "mem": 1081,
      "man": 1082,
      "kwargs": 1083,
      "inte": 1084,
      "empty": 1085,
      "python": 1086,
      "os": 1087,
      "URL": 1088,
      "://": 1089,
      "ning": 1090,
      "ete": 1091,
      "create": 1092,
      "``.": 1093,
      "called": 1094,
      "face": 1095,
      "Py": 1096,
      "cent": 1097,
      "frame": 1098,
      "position": 1099,
      "ating": 1100,
      "secon": 1101,
      "enco": 1102,
      "grid": 1103,
      "sequence": 1104,
      "available": 1105,
      "alys": 1106,
      "map": 1107,
      "page": 1108,
      "dy": 1109,
      "nd": 1110,
      "off": 1111,
      "ms": 1112,
      "callback": 1113,
      "limit": 1114,
      "network": 1115,
      "types": 1116,
      "Un": 1117,
      "dif": 1118,
      "ready": 1119,
      "json": 1120,
      "also": 1121,
      "need": 1122,
      "oc": 1123,
      "init": 1124,
      "Context": 1125,
      "write": 1126,
      "bound": 1127,
      "ical": 1128,
      "Al": 1129,
      "storage": 1130,
      "ccess": 1131,
      "tern": 1132,
      "ormal": 1133,
      "iel": 1134,
      "ments": 1135,
      "sure": 1136,
      "Di": 1137,
      "Pa": 1138,
      "search": 1139,
      "base": 1140,
      "before": 1141,
      "flow": 1142,
      "ument": 1143,
      "It": 1144,
      "level": 1145,
      "coord": 1146,
      "ref": 1147,
      "configuration": 1148,
      "gen": 1149,
      "['": 1150,
      "modu": 1151,
      "olut": 1152,
      "\":": 1153,
      "Ke": 1154,
      "fl": 1155,
      "content": 1156,
      "extra": 1157,
      "module": 1158,
      "_type": 1159,
      "ark": 1160,
      "shape": 1161,
      "func": 1162,
      "case": 1163,
      "exception": 1164,
      "IP": 1165,
      "ish": 1166,
      "strings": 1167,
      "Gener": 1168,
      "ither": 1169,
      "etime": 1170,
      "tri": 1171,
      "vect": 1172,
      "system": 1173,
      "rout": 1174,
      "location": 1175,
      "char": 1176,
      "properties": 1177,
      "Parse": 1178,
      "ndarray": 1179,
      "pect": 1180,
      "aset": 1181,
      "Convert": 1182,
      "Co": 1183,
      "place": 1184,
      "clo": 1185,
      "Up": 1186,
      "session": 1187,
      "example": 1188,
      "lob": 1189,
      "{'": 1190,
      "project": 1191,
      "otherwise": 1192,
      "See": 1193,
      "multi": 1194,
      "been": 1195,
      "ization": 1196,
      "non": 1197,
      "Qu": 1198,
      "such": 1199,
      "Key": 1200,
      "items": 1201,
      "auto": 1202,
      "defined": 1203,
      "follow": 1204,
      "parse": 1205,
      "appli": 1206,
      "Num": 1207,
      "ValueError": 1208,
      "pandas": 1209,
      "alysis": 1210,
      "pression": 1211,
      "ses": 1212,
      "space": 1213,
      "local": 1214,
      "info": 1215,
      "adata": 1216,
      "root": 1217,
      "syn": 1218,
      "HTTP": 1219,
      "header": 1220,
      "ported": 1221,
      "view": 1222,
      "wa": 1223,
      "correspon": 1224,
      "keyword": 1225,
      "ance": 1226,
      "pipe": 1227,
      "play": 1228,
      "olean": 1229,
      "already": 1230,
      "lection": 1231,
      "est": 1232,
      "operation": 1233,
      "old": 1234,
      "calcul": 1235,
      "abase": 1236,
      "Optional": 1237,
      "dim": 1238,
      "ache": 1239,
      "atch": 1240,
      "fail": 1241,
      "send": 1242,
      "ency": 1243,
      "compl": 1244,
      "Mo": 1245,
      "ures": 1246,
      "open": 1247,
      "pub": 1248,
      "property": 1249,
      "orig": 1250,
      "host": 1251,
      "ose": 1252,
      "'.": 1253,
      "det": 1254,
      "auth": 1255,
      "tree": 1256,
      "side": 1257,
      "ed_": 1258,
      "Array": 1259,
      "DataF": 1260,
      "timeout": 1261,
      "mode": 1262,
      "pping": 1263,
      "origin": 1264,
      "parser": 1265,
      "datetime": 1266,
      "handl": 1267,
      "File": 1268,
      "io": 1269,
      "ables": 1270,
      "very": 1271,
      "Read": 1272,
      "coordin": 1273,
      "tic": 1274,
      "curs": 1275,
      "ml": 1276,
      "ular": 1277,
      "igh": 1278,
      "ices": 1279,
      "Note": 1280,
      "Path": 1281,
      "sco": 1282,
      "Id": 1283,
      "required": 1284,
      "s_": 1285,
      "raw": 1286,
      "IN": 1287,
      "sche": 1288,
      "variable": 1289,
      "update": 1290,
      "Python": 1291,
      "ill": 1292,
      "rece": 1293,
      "day": 1294,
      "regist": 1295,
      "Im": 1296,
      "kes": 1297,
      "angu": 1298,
      "test": 1299,
      "top": 1300,
      "hash": 1301,
      "axis": 1302,
      "etch": 1303,
      "scal": 1304,
      "Cont": 1305,
      "added": 1306,
      "device": 1307,
      "ries": 1308,
      "indo": 1309,
      "indow": 1310,
      "normal": 1311,
      "perature": 1312,
      "subscri": 1313,
      "either": 1314,
      "way": 1315,
      "link": 1316,
      "annel": 1317,
      "color": 1318,
      "Ob": 1319,
      "ential": 1320,
      "permission": 1321,
      "ML": 1322,
      "cept": 1323,
      "yn": 1324,
      "section": 1325,
      "actions": 1326,
      "components": 1327,
      "prefix": 1328,
      "Number": 1329,
      "Bu": 1330,
      "specify": 1331,
      "mark": 1332,
      "container": 1333,
      "ustom": 1334,
      "last": 1335,
      "========": 1336,
      "])": 1337,
      "DataFrame": 1338,
      "12": 1339,
      "rary": 1340,
      "def": 1341,
      "fields": 1342,
      "ugh": 1343,
      "fact": 1344,
      "On": 1345,
      "zer": 1346,
      "ith": 1347,
      "see": 1348,
      "expression": 1349,
      "stant": 1350,
      "specific": 1351,
      "existing": 1352,
      "integer": 1353,
      "Call": 1354,
      "their": 1355,
      "change": 1356,
      "AT": 1357,
      "dimension": 1358,
      "np": 1359,
      "setting": 1360,
      "ensor": 1361,
      "comput": 1362,
      "distri": 1363,
      "cket": 1364,
      "ght": 1365,
      "them": 1366,
      "pay": 1367,
      "parent": 1368,
      "pair": 1369,
      "database": 1370,
      "numpy": 1371,
      "wait": 1372,
      "pen": 1373,
      "chang": 1374,
      "Ch": 1375,
      "cache": 1376,
      "vent": 1377,
      "full": 1378,
      "identifier": 1379,
      "ically": 1380,
      "oci": 1381,
      "under": 1382,
      "initial": 1383,
      "temperature": 1384,
      "Spe": 1385,
      "dir": 1386,
      "nodes": 1387,
      "ants": 1388,
      "offset": 1389,
      "rol": 1390,
      "anguage": 1391,
      "ric": 1392,
      "body": 1393,
      "boolean": 1394,
      "representation": 1395,
      "bit": 1396,
      "ced": 1397,
      "mount": 1398,
      "some": 1399,
      "ft": 1400,
      "updat": 1401,
      "contains": 1402,
      "rie": 1403,
      "associ": 1404,
      "unique": 1405,
      "Au": 1406,
      "try": 1407,
      "document": 1408,
      "include": 1409,
      "Time": 1410,
      "andom": 1411,
      "Do": 1412,
      "UT": 1413,
      "wid": 1414,
      "Remo": 1415,
      "\"\"\"": 1416,
      "bers": 1417,
      "less": 1418,
      "``,": 1419,
      "vide": 1420,
      "messages": 1421,
      "vis": 1422,
      "convert": 1423,
      "sa": 1424,
      "thentic": 1425,
      "charact": 1426,
      "custom": 1427,
      "within": 1428,
      "ered": 1429,
      "n_": 1430,
      "solut": 1431,
      "ves": 1432,
      "reference": 1433,
      "resh": 1434,
      "box": 1435,
      "attributes": 1436,
      "indic": 1437,
      "ib": 1438,
      "make": 1439,
      "multiple": 1440,
      "pli": 1441,
      "imple": 1442,
      "down": 1443,
      "tt": 1444,
      "qual": 1445,
      "_path": 1446,
      "raise": 1447,
      "-----": 1448,
      "stances": 1449,
      "attr": 1450,
      "metadata": 1451,
      "ility": 1452,
      "Example": 1453,
      "possi": 1454,
      "structure": 1455,
      "description": 1456,
      "they": 1457,
      "range": 1458,
      "bar": 1459,
      "math": 1460,
      "viron": 1461,
      "ast": 1462,
      "Request": 1463,
      "iterable": 1464,
      "Wh": 1465,
      "cert": 1466,
      "zure": 1467,
      "select": 1468,
      "dataset": 1469,
      ">`": 1470,
      "led": 1471,
      "maximum": 1472,
      "16": 1473,
      "tim": 1474,
      "itional": 1475,
      "generator": 1476,
      "String": 1477,
      "rieve": 1478,
      "mean": 1479,
      "success": 1480,
      "lines": 1481,
      "vo": 1482,
      "stand": 1483,
      "mapping": 1484,
      "Examples": 1485,
      "corresponding": 1486,
      "https": 1487,
      "Object": 1488,
      "analysis": 1489,
      "vector": 1490,
      "exists": 1491,
      "true": 1492,
      "interface": 1493,
      "fs": 1494,
      "er_": 1495,
      "Run": 1496,
      "kno": 1497,
      "ud": 1498,
      "schema": 1499,
      "istr": 1500,
      "params": 1501,
      "tal": 1502,
      "transform": 1503,
      "Whe": 1504,
      "lay": 1505,
      "vol": 1506,
      "Mess": 1507,
      "]:": 1508,
      "queue": 1509,
      "Notes": 1510,
      "='": 1511,
      "As": 1512,
      "glob": 1513,
      "sent": 1514,
      "foo": 1515,
      "Cal": 1516,
      "mesh": 1517,
      "ferent": 1518,
      "next": 1519,
      "fre": 1520,
      "Po": 1521,
      "RE": 1522,
      "stam": 1523,
      "being": 1524,
      "elements": 1525,
      "records": 1526,
      "([": 1527,
      "ep": 1528,
      "ions": 1529,
      "ics": 1530,
      "Build": 1531,
      "go": 1532,
      "subscription": 1533,
      "child": 1534,
      "definition": 1535,
      "thing": 1536,
      "script": 1537,
      "gram": 1538,
      "pattern": 1539,
      "look": 1540,
      "sec": 1541,
      "assign": 1542,
      "Load": 1543,
      "distribut": 1544,
      "urces": 1545,
      "hel": 1546,
      "authentic": 1547,
      "Valid": 1548,
      "']": 1549,
      "Open": 1550,
      "random": 1551,
      "cle": 1552,
      "org": 1553,
      "to_": 1554,
      "No": 1555,
      "ised": 1556,
      "c_": 1557,
      "gor": 1558,
      "sort": 1559,
      "seconds": 1560,
      "payload": 1561,
      "_key": 1562,
      "cred": 1563,
      "sample": 1564,
      "Defaults": 1565,
      "receiv": 1566,
      "ply": 1567,
      "vironment": 1568,
      "Azure": 1569,
      "ames": 1570,
      "store": 1571,
      "Given": 1572,
      "requests": 1573,
      "associated": 1574,
      "my": 1575,
      "stall": 1576,
      "copy": 1577,
      "following": 1578,
      "Use": 1579,
      "ached": 1580,
      "get_": 1581,
      "Creates": 1582,
      "ss": 1583,
      "},": 1584,
      "ugin": 1585,
      "zero": 1586,
      "radi": 1587,
      "channel": 1588,
      "riev": 1589,
      "(:": 1590,
      "ffect": 1591,
      "http": 1592,
      "head": 1593,
      "series": 1594,
      "cry": 1595,
      "step": 1596,
      "App": 1597,
      "og": 1598,
      "sym": 1599,
      "AR": 1600,
      "mer": 1601,
      "ango": 1602,
      "Calcul": 1603,
      "just": 1604,
      "different": 1605,
      "extract": 1606,
      "Message": 1607,
      "paths": 1608,
      "LE": 1609,
      "rection": 1610,
      "weight": 1611,
      "Config": 1612,
      "Sub": 1613,
      "NA": 1614,
      "Reg": 1615,
      "ater": 1616,
      "clust": 1617,
      "ification": 1618,
      "library": 1619,
      "appro": 1620,
      "domain": 1621,
      "relative": 1622,
      "100": 1623,
      "Col": 1624,
      "sert": 1625,
      "build": 1626,
      "long": 1627,
      "representing": 1628,
      "through": 1629,
      "Whether": 1630,
      "PE": 1631,
      "rid": 1632,
      "zh": 1633,
      "perform": 1634,
      "ume": 1635,
      "64": 1636,
      "Writ": 1637,
      "ched": 1638,
      "possible": 1639,
      "stead": 1640,
      "ran": 1641,
      ",)": 1642,
      "obser": 1643,
      "templ": 1644,
      "Comput": 1645,
      "war": 1646,
      "want": 1647,
      "methods": 1648,
      "nal": 1649,
      "CP": 1650,
      "v20": 1651,
      "most": 1652,
      "without": 1653,
      "_data": 1654,
      "labels": 1655,
      "PO": 1656,
      "deter": 1657,
      "gment": 1658,
      "ker": 1659,
      "pped": 1660,
      "columns": 1661,
      "stamp": 1662,
      "alle": 1663,
      "serial": 1664,
      "throat": 1665,
      ".,": 1666,
      "ME": 1667,
      "resol": 1668,
      "cies": 1669,
      "defaults": 1670,
      "total": 1671,
      "ulation": 1672,
      "uments": 1673,
      "Connect": 1674,
      "DE": 1675,
      "_like": 1676,
      "separ": 1677,
      "cannot": 1678,
      "mc": 1679,
      "itive": 1680,
      "metric": 1681,
      "\")": 1682,
      "plugin": 1683,
      "package": 1684,
      "ases": 1685,
      "igno": 1686,
      "named": 1687,
      "Other": 1688,
      "distance": 1689,
      "control": 1690,
      "Trans": 1691,
      "max_": 1692,
      "parsed": 1693,
      "callable": 1694,
      "XX": 1695,
      "report": 1696,
      "decor": 1697,
      "pipeline": 1698,
      "formatt": 1699,
      "Arg": 1700,
      "stored": 1701,
      "flag": 1702,
      "Update": 1703,
      "original": 1704,
      "implement": 1705,
      "Task": 1706,
      "fer": 1707,
      "environment": 1708,
      "200": 1709,
      "Medi": 1710,
      "fra": 1711,
      "lish": 1712,
      "xel": 1713,
      "ice": 1714,
      "mon": 1715,
      "wer": 1716,
      "entries": 1717,
      "cond": 1718,
      "array_like": 1719,
      "track": 1720,
      "application": 1721,
      "Send": 1722,
      "sp": 1723,
      "collection": 1724,
      "_size": 1725,
      "detail": 1726,
      "language": 1727,
      "opt": 1728,
      "expect": 1729,
      "component": 1730,
      "0x": 1731,
      "construct": 1732,
      "izes": 1733,
      "ager": 1734,
      "about": 1735,
      "Sets": 1736,
      "vfs": 1737,
      "empt": 1738,
      "dfvfs": 1739,
      "Find": 1740,
      "sensor": 1741,
      "instead": 1742,
      "cell": 1743,
      "->": 1744,
      "plan": 1745,
      "specification": 1746,
      "25": 1747,
      "Per": 1748,
      "We": 1749,
      "]):": 1750,
      "exc": 1751,
      "prof": 1752,
      "indices": 1753,
      "v2010": 1754,
      "how": 1755,
      "post": 1756,
      "find": 1757,
      "Respon": 1758,
      "When": 1759,
      "SS": 1760,
      "instances": 1761,
      "tit": 1762,
      "lease": 1763,
      "errors": 1764,
      "coordinates": 1765,
      "ets": 1766,
      "supported": 1767,
      "binary": 1768,
      "ake": 1769,
      "Auth": 1770,
      "encoded": 1771,
      "mail": 1772,
      "uses": 1773,
      "pop": 1774,
      "thresh": 1775,
      "these": 1776,
      "here": 1777,
      "generated": 1778,
      "remove": 1779,
      "Dat": 1780,
      "unit": 1781,
      "both": 1782,
      "matching": 1783,
      "thread": 1784,
      "aries": 1785,
      "right": 1786,
      "zhmc": 1787,
      "zhmcclient": 1788,
      "wra": 1789,
      "direction": 1790,
      "ules": 1791,
      "until": 1792,
      "19": 1793,
      "So": 1794,
      "ired": 1795,
      "ten": 1796,
      "Response": 1797,
      "(\"": 1798,
      "By": 1799,
      "To": 1800,
      "window": 1801,
      "install": 1802,
      "events": 1803,
      "username": 1804,
      "mag": 1805,
      "imal": 1806,
      "ints": 1807,
      "cording": 1808,
      "unk": 1809,
      "region": 1810,
      "ferences": 1811,
      "public": 1812,
      "pixel": 1813,
      "ix": 1814,
      "our": 1815,
      "ination": 1816,
      "attempt": 1817,
      "removed": 1818,
      "known": 1819,
      "cluster": 1820,
      "Del": 1821,
      "SE": 1822,
      "User": 1823,
      "she": 1824,
      "html": 1825,
      "da": 1826,
      "----------------": 1827,
      "functions": 1828,
      "your": 1829,
      "plied": 1830,
      "standard": 1831,
      "15": 1832,
      "32": 1833,
      "raised": 1834,
      "again": 1835,
      "pores": 1836,
      "byte": 1837,
      "extension": 1838,
      "antity": 1839,
      "missing": 1840,
      "second": 1841,
      "Des": 1842,
      "core": 1843,
      "Exception": 1844,
      "handler": 1845,
      "entity": 1846,
      "proto": 1847,
      "timestamp": 1848,
      "ield": 1849,
      "width": 1850,
      "distribution": 1851,
      "classes": 1852,
      "require": 1853,
      "times": 1854,
      "template": 1855,
      "OR": 1856,
      "len": 1857,
      "mod": 1858,
      "Execut": 1859,
      "Service": 1860,
      "gre": 1861,
      "por": 1862,
      "frequ": 1863,
      "title": 1864,
      "display": 1865,
      "remote": 1866,
      "every": 1867,
      "ites": 1868,
      "pol": 1869,
      "Generate": 1870,
      "Event": 1871,
      "Ho": 1872,
      "note": 1873,
      "sets": 1874,
      "replace": 1875,
      "+-+-+-+-+-+-+-+-+-+-+-+-+-+-+-+-+": 1876,
      "book": 1877,
      "plit": 1878,
      "endpoint": 1879,
      "pressure": 1880,
      "variables": 1881,
      "Hand": 1882,
      "stop": 1883,
      "angle": 1884,
      "requested": 1885,
      "backend": 1886,
      "allowed": 1887,
      "bra": 1888,
      "ts": 1889,
      "atures": 1890,
      "ali": 1891,
      "ull": 1892,
      "))": 1893,
      "11": 1894,
      "bed": 1895,
      "duct": 1896,
      "ffi": 1897,
      "gu": 1898,
      "ging": 1899,
      "pret": 1900,
      "Parses": 1901,
      "according": 1902,
      "rows": 1903,
      "ily": 1904,
      "fully": 1905,
      "RF": 1906,
      "[[": 1907,
      "site": 1908,
      "loaded": 1909,
      "ffer": 1910,
      "ted": 1911,
      "ule": 1912,
      "unction": 1913,
      "pher": 1914,
      "''": 1915,
      "ld": 1916,
      "imesh": 1917,
      "correct": 1918,
      "settings": 1919,
      "_token": 1920,
      "cated": 1921,
      "mask": 1922,
      "annot": 1923,
      "ities": 1924,
      "ids": 1925,
      "_list": 1926,
      "_file": 1927,
      "dec": 1928,
      "dep": 1929,
      "ields": 1930,
      "ured": 1931,
      "left": 1932,
      "ing_": 1933,
      "worker": 1934,
      "supplied": 1935,
      "registered": 1936,
      "authentication": 1937,
      "Graph": 1938,
      "ges": 1939,
      "difi": 1940,
      "vious": 1941,
      "complete": 1942,
      "solute": 1943,
      "ide": 1944,
      "dest": 1945,
      "password": 1946,
      "Adds": 1947,
      "cause": 1948,
      "complet": 1949,
      "YY": 1950,
      "sm": 1951,
      "loop": 1952,
      "transaction": 1953,
      "generate": 1954,
      "Also": 1955,
      "Only": 1956,
      "vices": 1957,
      "height": 1958,
      "save": 1959,
      "30": 1960,
      "ak": 1961,
      "along": 1962,
      "conf": 1963,
      "web": 1964,
      "+-+-+-+-+-+-+-+-+-+-+-+-+-+-+-+-+-+-+-+-+-+-+-+-+-+-+-+-+-+-+-+-+": 1965,
      "QL": 1966,
      "round": 1967,
      "DataArray": 1968,
      "secret": 1969,
      "Otherwise": 1970,
      "Dis": 1971,
      "Fil": 1972,
      "IO": 1973,
      "fetch": 1974,
      "ible": 1975,
      "ince": 1976,
      "istics": 1977,
      "accept": 1978,
      "credential": 1979,
      "sers": 1980,
      "encies": 1981,
      "Parser": 1982,
      "signature": 1983,
      "encoding": 1984,
      "ways": 1985,
      "area": 1986,
      "calls": 1987,
      "running": 1988,
      "Specifi": 1989,
      "ear": 1990,
      "effect": 1991,
      "invalid": 1992,
      "could": 1993,
      "via": 1994,
      "connected": 1995,
      "axes": 1996,
      ":`~.": 1997,
      "Remove": 1998,
      "_point": 1999,
      "mine": 2000,
      "ended": 2001,
      "memory": 2002,
      "Calculate": 2003,
      "Work": 2004,
      "those": 2005,
      "frequency": 2006,
      "TI": 2007,
      "batch": 2008,
      "ie": 2009,
      "gy": 2010,
      "pn": 2011,
      "cons": 2012,
      "assum": 2013,
      "pairs": 2014,
      "XML": 2015,
      "`)": 2016,
      "crit": 2017,
      "equal": 2018,
      "insert": 2019,
      "dered": 2020,
      "apply": 2021,
      "updated": 2022,
      "istry": 2023,
      "formatted": 2024,
      "Arguments": 2025,
      "ffici": 2026,
      "fill": 2027,
      "ifact": 2028,
      "Extra": 2029,
      "gorith": 2030,
      "Bo": 2031,
      "don": 2032,
      "tool": 2033,
      "abled": 2034,
      "ared": 2035,
      "dataframe": 2036,
      "show": 2037,
      "active": 2038,
      "would": 2039,
      "Client": 2040,
      "Length": 2041,
      "uring": 2042,
      "necess": 2043,
      "Query": 2044,
      "Net": 2045,
      "db": 2046,
      "p_": 2047,
      "matches": 2048,
      "characters": 2049,
      "Cl": 2050,
      "own": 2051,
      "als": 2052,
      "produ": 2053,
      "previous": 2054,
      "Pr": 2055,
      "jo": 2056,
      "consum": 2057,
      "ged": 2058,
      "sk": 2059,
      "absolute": 2060,
      "Compute": 2061,
      "cli": 2062,
      "iod": 2063,
      "sted": 2064,
      "product": 2065,
      "FI": 2066,
      "den": 2067,
      "itu": 2068,
      "Model": 2069,
      "video": 2070,
      "Function": 2071,
      "apt": 2072,
      "high": 2073,
      "abo": 2074,
      "redu": 2075,
      "resources": 2076,
      "automat": 2077,
      "details": 2078,
      "che": 2079,
      "ick": 2080,
      "lat": 2081,
      "contents": 2082,
      "ively": 2083,
      "directly": 2084,
      "Process": 2085,
      "ters": 2086,
      "alog": 2087,
      "asyn": 2088,
      "headers": 2089,
      "MA": 2090,
      "gory": 2091,
      "sav": 2092,
      "ually": 2093,
      "uture": 2094,
      "pore": 2095,
      "pool": 2096,
      "spect": 2097,
      "Input": 2098,
      "groups": 2099,
      "msg": 2100,
      "Fetch": 2101,
      "cat": 2102,
      "sty": 2103,
      "Result": 2104,
      "rieves": 2105,
      "Index": 2106,
      "handle": 2107,
      "scale": 2108,
      "ound": 2109,
      "modifi": 2110,
      "member": 2111,
      "Quantity": 2112,
      "ire": 2113,
      "period": 2114,
      "board": 2115,
      "additional": 2116,
      "mediator": 2117,
      "Image": 2118,
      "ner": 2119,
      "Start": 2120,
      "All": 2121,
      "let": 2122,
      "internal": 2123,
      "support": 2124,
      "Connection": 2125,
      "SC": 2126,
      "email": 2127,
      "verse": 2128,
      "file_": 2129,
      "namespace": 2130,
      "against": 2131,
      "necessary": 2132,
      "algorith": 2133,
      "omet": 2134,
      "doesn": 2135,
      "mount_point": 2136,
      "expected": 2137,
      "cro": 2138,
      "minimum": 2139,
      "changed": 2140,
      "cr": 2141,
      "constr": 2142,
      "desired": 2143,
      "route": 2144,
      "var": 2145,
      "parsers": 2146,
      "Retrieve": 2147,
      "TE": 2148,
      "Tra": 2149,
      "exclu": 2150,
      "means": 2151,
      "well": 2152,
      "buffer": 2153,
      "protocol": 2154,
      "\".": 2155,
      "Or": 2156,
      "fit": 2157,
      "ason": 2158,
      "what": 2159,
      "plac": 2160,
      "numbers": 2161,
      "add_": 2162,
      "needed": 2163,
      "Base": 2164,
      "`:": 2165,
      "vate": 2166,
      "usage": 2167,
      "ives": 2168,
      "interval": 2169,
      "layer": 2170,
      "bl": 2171,
      "role": 2172,
      "factory": 2173,
      "volume": 2174,
      "Write": 2175,
      "profile": 2176,
      "40": 2177,
      "slot": 2178,
      "samples": 2179,
      "edge": 2180,
      "pint": 2181,
      "seq": 2182,
      "segment": 2183,
      "cip": 2184,
      "workflow": 2185,
      "prior": 2186,
      "Pre": 2187,
      "Syn": 2188,
      "faces": 2189,
      "processing": 2190,
      "takes": 2191,
      "term": 2192,
      "presents": 2193,
      "Stat": 2194,
      "Proper": 2195,
      "another": 2196,
      "close": 2197,
      ",,": 2198,
      "_value": 2199,
      "Retrieves": 2200,
      "delete": 2201,
      "manager": 2202,
      "card": 2203,
      "eg": 2204,
      "real": 2205,
      "neigh": 2206,
      "partition": 2207,
      "50": 2208,
      "AN": 2209,
      "Ac": 2210,
      "OS": 2211,
      "Sto": 2212,
      "done": 2213,
      "coun": 2214,
      "units": 2215,
      "meas": 2216,
      "useful": 2217,
      "written": 2218,
      "dependencies": 2219,
      "changes": 2220,
      "threshold": 2221,
      "Cur": 2222,
      "bol": 2223,
      "cs": 2224,
      "effici": 2225,
      "plic": 2226,
      "ving": 2227,
      "stack": 2228,
      "currently": 2229,
      "simul": 2230,
      "condition": 2231,
      "Att": 2232,
      "cp": 2233,
      "ww": 2234,
      "erial": 2235,
      "ences": 2236,
      "execution": 2237,
      "AST": 2238,
      "_to_": 2239,
      "tango": 2240,
      "arrays": 2241,
      "automatically": 2242,
      "Access": 2243,
      "xt": 2244,
      "instr": 2245,
      "interactions": 2246,
      "category": 2247,
      "GE": 2248,
      "\\\\": 2249,
      "always": 2250,
      "ability": 2251,
      "whose": 2252,
      "neg": 2253,
      "calculated": 2254,
      "determin": 2255,
      "style": 2256,
      "AA": 2257,
      "TO": 2258,
      "bro": 2259,
      "fr": 2260,
      "late": 2261,
      "sn": 2262,
      "force": 2263,
      "power": 2264,
      "hook": 2265,
      "tuples": 2266,
      "partic": 2267,
      "kernel": 2268,
      "algorithm": 2269,
      "ins": 2270,
      "represents": 2271,
      "etc": 2272,
      "ately": 2273,
      "cial": 2274,
      "Construct": 2275,
      "tempor": 2276,
      "ensity": 2277,
      "deriv": 2278,
      "appropri": 2279,
      "Item": 2280,
      "-----------": 2281,
      "coordinate": 2282,
      "help": 2283,
      "Mediator": 2284,
      "AL": 2285,
      "Map": 2286,
      "Window": 2287,
      "band": 2288,
      "ene": 2289,
      "because": 2290,
      "lists": 2291,
      "indicate": 2292,
      "folder": 2293,
      "global": 2294,
      "since": 2295,
      "chron": 2296,
      "calling": 2297,
      "private": 2298,
      "PC": 2299,
      "cho": 2300,
      "---------": 2301,
      "Inter": 2302,
      "targets": 2303,
      "take": 2304,
      "AD": 2305,
      "gon": 2306,
      "ster": 2307,
      "workspace": 2308,
      "alias": 2309,
      "24": 2310,
      "Pay": 2311,
      "akes": 2312,
      "agg": 2313,
      "pot": 2314,
      "interpol": 2315,
      "particular": 2316,
      "md": 2317,
      "rt": 2318,
      "xm": 2319,
      "respect": 2320,
      "socket": 2321,
      "delet": 2322,
      "artifact": 2323,
      "Deter": 2324,
      "Make": 2325,
      "Pass": 2326,
      "Sup": 2327,
      "xarray": 2328,
      "in_": 2329,
      "models": 2330,
      "signed": 2331,
      "received": 2332,
      "'}": 2333,
      "Page": 2334,
      "split": 2335,
      "interpret": 2336,
      "tags": 2337,
      "parser_": 2338,
      "character": 2339,
      "He": 2340,
      "retrieve": 2341,
      "Init": 2342,
      "Format": 2343,
      "chedul": 2344,
      "Out": 2345,
      "git": 2346,
      "mut": 2347,
      "roll": 2348,
      "export": 2349,
      "undle": 2350,
      "steps": 2351,
      "Class": 2352,
      "14": 2353,
      "ql": 2354,
      "edges": 2355,
      "uplic": 2356,
      "ParserMediator": 2357,
      "CL": 2358,
      "Tok": 2359,
      "ia": 2360,
      "cel": 2361,
      "common": 2362,
      "publish": 2363,
      "selected": 2364,
      "warning": 2365,
      "decorator": 2366,
      "pper": 2367,
      "sem": 2368,
      "program": 2369,
      "commit": 2370,
      "Diction": 2371,
      "cursor": 2372,
      "dimensional": 2373,
      "Perform": 2374,
      "13": 2375,
      "New": 2376,
      "ories": 2377,
      "Dictionary": 2378,
      "18": 2379,
      "Iter": 2380,
      "_dir": 2381,
      "mand": 2382,
      "once": 2383,
      "execute": 2384,
      "Fl": 2385,
      "Me": 2386,
      "hist": 2387,
      "ush": 2388,
      "comp": 2389,
      "compat": 2390,
      "posit": 2391,
      "Can": 2392,
      "_number": 2393,
      "mu": 2394,
      "za": 2395,
      "ceed": 2396,
      "ump": 2397,
      "stats": 2398,
      "RFC": 2399,
      "depth": 2400,
      "now": 2401,
      "Any": 2402,
      "certain": 2403,
      "ometry": 2404,
      "car": 2405,
      "xy": 2406,
      "prob": 2407,
      "cla": 2408,
      "bug": 2409,
      "cast": 2410,
      "members": 2411,
      "symbol": 2412,
      "itude": 2413,
      "appropriate": 2414,
      "Payload": 2415,
      "Clo": 2416,
      "cap": 2417,
      "txt": 2418,
      "reason": 2419,
      "eries": 2420,
      "ulate": 2421,
      "parser_mediator": 2422,
      "MP": 2423,
      "evalu": 2424,
      "future": 2425,
      "ier": 2426,
      "spa": 2427,
      "included": 2428,
      "Converts": 2429,
      "scope": 2430,
      "22": 2431,
      "DF": 2432,
      "------------": 2433,
      "even": 2434,
      "sys": 2435,
      "variants": 2436,
      "TypeError": 2437,
      "mediates": 2438,
      "ignored": 2439,
      "Sh": 2440,
      "_f": 2441,
      "during": 2442,
      "many": 2443,
      "adding": 2444,
      "feature": 2445,
      "score": 2446,
      "]],": 2447,
      "gra": 2448,
      "inv": 2449,
      "were": 2450,
      "features": 2451,
      "Extract": 2452,
      "Em": 2453,
      "Table": 2454,
      "rate": 2455,
      "sr": 2456,
      "enabled": 2457,
      "ivity": 2458,
      "keep": 2459,
      "signal": 2460,
      "days": 2461,
      "Specifies": 2462,
      "bi": 2463,
      "ount": 2464,
      "else": 2465,
      "phone": 2466,
      "trig": 2467,
      "detect": 2468,
      "neighb": 2469,
      "Attribut": 2470,
      "Target": 2471,
      "_url": 2472,
      "`):": 2473,
      "duplic": 2474,
      "sli": 2475,
      "uction": 2476,
      "leader": 2477,
      "cipher": 2478,
      "resulting": 2479,
      "prim": 2480,
      "fft": 2481,
      "starting": 2482,
      "closed": 2483,
      "Element": 2484,
      "amount": 2485,
      "users": 2486,
      "occur": 2487,
      "implementation": 2488,
      "Network": 2489,
      "NO": 2490,
      "while": 2491,
      "commands": 2492,
      "Address": 2493,
      "observ": 2494,
      "Windows": 2495,
      "zone": 2496,
      "tran": 2497,
      "transl": 2498,
      "Checks": 2499,
      "documentation": 2500,
      "aw": 2501,
      "aio": 2502,
      "chunk": 2503,
      "proble": 2504,
      "ificate": 2505,
      "counts": 2506,
      "logging": 2507,
      "buil": 2508,
      "Log": 2509,
      "summ": 2510,
      "larg": 2511,
      "sol": 2512,
      "ues": 2513,
      "ision": 2514,
      "poly": 2515,
      "from_": 2516,
      "verage": 2517,
      "percent": 2518,
      "--------------": 2519,
      "State": 2520,
      "including": 2521,
      "olution": 2522,
      "================": 2523,
      "radius": 2524,
      "allel": 2525,
      "ave": 2526,
      "dtype": 2527,
      "sur": 2528,
      "year": 2529,
      "cook": 2530,
      "Requi": 2531,
      "permissions": 2532,
      "factor": 2533,
      "indicates": 2534,
      "crypt": 2535,
      "Regist": 2536,
      "ranch": 2537,
      "month": 2538,
      "Dataset": 2539,
      "Descri": 2540,
      "IC": 2541,
      "jar": 2542,
      "least": 2543,
      "constant": 2544,
      "lower": 2545,
      "bucket": 2546,
      "iterator": 2547,
      "Serial": 2548,
      "ferred": 2549,
      "optim": 2550,
      "01": 2551,
      "HE": 2552,
      "stud": 2553,
      "bot": 2554,
      "assigned": 2555,
      "SQL": 2556,
      "T_": 2557,
      "pers": 2558,
      "loc": 2559,
      "short": 2560,
      "HTML": 2561,
      "fails": 2562,
      "33": 2563,
      "Group": 2564,
      "cer": 2565,
      "reply": 2566,
      "combin": 2567,
      "Content": 2568,
      "voice": 2569,
      "Max": 2570,
      "ont": 2571,
      "actual": 2572,
      "ava": 2573,
      "Produ": 2574,
      "Filter": 2575,
      "credentials": 2576,
      "above": 2577,
      "chronous": 2578,
      "MC": 2579,
      "Ro": 2580,
      "pants": 2581,
      "uid": 2582,
      "ash": 2583,
      "ifier": 2584,
      "applied": 2585,
      "compute": 2586,
      "sorted": 2587,
      "destination": 2588,
      "measure": 2589,
      "Initial": 2590,
      "58": 2591,
      "Each": 2592,
      "reco": 2593,
      "is_": 2594,
      "deco": 2595,
      "depending": 2596,
      "Handle": 2597,
      "xmpp": 2598,
      "/{": 2599,
      "17": 2600,
      "Go": 2601,
      "Pub": 2602,
      "branch": 2603,
      "ness": 2604,
      "oid": 2605,
      "inc": 2606,
      "expi": 2607,
      "special": 2608,
      "Validate": 2609,
      "Delete": 2610,
      "constra": 2611,
      "Man": 2612,
      "RPC": 2613,
      "Wra": 2614,
      "false": 2615,
      "tain": 2616,
      "Device": 2617,
      "versions": 2618,
      "bounds": 2619,
      "Dict": 2620,
      "vectors": 2621,
      "TION": 2622,
      "aioxmpp": 2623,
      "II": 2624,
      "[-": 2625,
      "ese": 2626,
      "compa": 2627,
      "compres": 2628,
      "vertices": 2629,
      "pixels": 2630,
      "aggreg": 2631,
      "FF": 2632,
      "best": 2633,
      "new_": 2634,
      "dictionaries": 2635,
      "Stream": 2636,
      "daily": 2637,
      "gress": 2638,
      "ns": 2639,
      "xml": 2640,
      "of_": 2641,
      "leg": 2642,
      "decl": 2643,
      "dist": 2644,
      "adapt": 2645,
      "lyph": 2646,
      "apsho": 2647,
      "filters": 2648,
      "Spec": 2649,
      "AM": 2650,
      "SI": 2651,
      "SO": 2652,
      "made": 2653,
      "words": 2654,
      "Analysis": 2655,
      "access_token": 2656,
      "author": 2657,
      "indicating": 2658,
      "Will": 2659,
      "states": 2660,
      "depre": 2661,
      "cls": 2662,
      "setup": 2663,
      "configured": 2664,
      "sequences": 2665,
      "register": 2666,
      "observed": 2667,
      "Attribute": 2668,
      "Hel": 2669,
      "ek": 2670,
      "kind": 2671,
      "exceptions": 2672,
      "POST": 2673,
      "Field": 2674,
      "sl": 2675,
      "debug": 2676,
      "validator": 2677,
      "center": 2678,
      "widget": 2679,
      "plane": 2680,
      "student": 2681,
      "*.": 2682,
      "cached": 2683,
      "linear": 2684,
      "overrid": 2685,
      "plotlib": 2686,
      "modules": 2687,
      "plicit": 2688,
      "gers": 2689,
      "ou": 2690,
      "sw": 2691,
      "dates": 2692,
      "perim": 2693,
      "exter": 2694,
      "Info": 2695,
      "numer": 2696,
      "geometry": 2697,
      "checks": 2698,
      "estim": 2699,
      "Yields": 2700,
      "a_": 2701,
      "bundle": 2702,
      "cing": 2703,
      "g_": 2704,
      "gin": 2705,
      "king": 2706,
      "ending": 2707,
      "statistics": 2708,
      "Struct": 2709,
      "stanti": 2710,
      "constructor": 2711,
      "reduce": 2712,
      "2D": 2713,
      "At": 2714,
      "equi": 2715,
      "ystem": 2716,
      "recurs": 2717,
      "cour": 2718,
      "chain": 2719,
      "immedi": 2720,
      "returning": 2721,
      "Removes": 2722,
      "solution": 2723,
      "temporary": 2724,
      "34": 2725,
      "DB": 2726,
      "density": 2727,
      "enum": 2728,
      "upload": 2729,
      "tasks": 2730,
      "URI": 2731,
      "Token": 2732,
      "You": 2733,
      "_code": 2734,
      "sid": 2735,
      "incre": 2736,
      "below": 2737,
      "lying": 2738,
      "ified": 2739,
      "IDs": 2740,
      "statement": 2741,
      "router": 2742,
      "updates": 2743,
      "Dev": 2744,
      "PN": 2745,
      "WS": 2746,
      "az": 2747,
      "ven": 2748,
      "upper": 2749,
      "classpath": 2750,
      "ampling": 2751,
      "Description": 2752,
      "PUT": 2753,
      "hy": 2754,
      "uri": 2755,
      "lim": 2756,
      "ride": 2757,
      "termin": 2758,
      "validation": 2759,
      "_samples": 2760,
      "allows": 2761,
      "Store": 2762,
      "efficient": 2763,
      "Line": 2764,
      "tre": 2765,
      "tax": 2766,
      "reposit": 2767,
      "light": 2768,
      "dio": 2769,
      "notification": 2770,
      "related": 2771,
      "Server": 2772,
      "extracted": 2773,
      "latest": 2774,
      "leaderboard": 2775,
      "SA": 2776,
      "draw": 2777,
      "on_": 2778,
      "erved": 2779,
      "parsing": 2780,
      "agement": 2781,
      "final": 2782,
      "blocks": 2783,
      "FILE": 2784,
      "Met": 2785,
      "rat": 2786,
      "valent": 2787,
      "quot": 2788,
      "dicts": 2789,
      "directories": 2790,
      "inputs": 2791,
      "archive": 2792,
      "links": 2793,
      "Node": 2794,
      "consist": 2795,
      "snapsho": 2796,
      "').": 2797,
      "95": 2798,
      "DO": 2799,
      "HMC": 2800,
      "none": 2801,
      "plat": 2802,
      "nested": 2803,
      "matplotlib": 2804,
      "transition": 2805,
      "Options": 2806,
      "Generates": 2807,
      "Must": 2808,
      "Que": 2809,
      "dri": 2810,
      "encode": 2811,
      "num_": 2812,
      "subclass": 2813,
      "apping": 2814,
      "Search": 2815,
      "locations": 2816,
      "successfully": 2817,
      "definitions": 2818,
      "CO": 2819,
      "Normal": 2820,
      "_time": 2821,
      "cam": 2822,
      "asset": 2823,
      "angles": 2824,
      "Trimesh": 2825,
      "connections": 2826,
      "saved": 2827,
      "Produces": 2828,
      "=\"": 2829,
      "_of_": 2830,
      "equ": 2831,
      "or_": 2832,
      "creates": 2833,
      "certificate": 2834,
      "Point": 2835,
      "hum": 2836,
      "v_": 2837,
      "util": 2838,
      "beha": 2839,
      "exact": 2840,
      "allet": 2841,
      "sources": 2842,
      "0000": 2843,
      "overwrite": 2844,
      "static": 2845,
      "docs": 2846,
      "customer": 2847,
      "download": 2848,
      "periment": 2849,
      "Session": 2850,
      "ration": 2851,
      "conside": 2852,
      "expr": 2853,
      "vertex": 2854,
      "disk": 2855,
      "dify": 2856,
      "completion": 2857,
      "criter": 2858,
      "modified": 2859,
      "simulated": 2860,
      "considered": 2861,
      "One": 2862,
      "Pos": 2863,
      "ones": 2864,
      "exit": 2865,
      "reader": 2866,
      "failed": 2867,
      "underlying": 2868,
      "vision": 2869,
      "ibility": 2870,
      "determine": 2871,
      "ignore": 2872,
      "compil": 2873,
      "zip": 2874,
      "ordered": 2875,
      "retriev": 2876,
      "ilar": 2877,
      ":`.": 2878,
      "executed": 2879,
      "sync": 2880,
      "serialized": 2881,
      "annotation": 2882,
      "frames": 2883,
      "NT": 2884,
      "Pi": 2885,
      "scan": 2886,
      "ward": 2887,
      "x_": 2888,
      "replac": 2889,
      "progress": 2890,
      "Invalid": 2891,
      "____": 2892,
      "Ident": 2893,
      "Ab": 2894,
      "Sign": 2895,
      "Takes": 2896,
      "fall": 2897,
      "sql": 2898,
      "{\\": 2899,
      "stit": 2900,
      "aml": 2901,
      "strate": 2902,
      "adj": 2903,
      "trimesh": 2904,
      "These": 2905,
      "week": 2906,
      "patch": 2907,
      "needs": 2908,
      "calculate": 2909,
      "Current": 2910,
      "DNA": 2911,
      "Text": 2912,
      "jid": 2913,
      "kg": 2914,
      "rp": 2915,
      "retry": 2916,
      "anges": 2917,
      "design": 2918,
      "specim": 2919,
      "jobs": 2920,
      "performed": 2921,
      "polygon": 2922,
      "Block": 2923,
      "ler": 2924,
      "stu": 2925,
      "amb": 2926,
      "hex": 2927,
      "chat": 2928,
      "converted": 2929,
      "plugins": 2930,
      "decimal": 2931,
      "deleted": 2932,
      "MV": 2933,
      "_dict": 2934,
      "cision": 2935,
      "schedul": 2936,
      "outine": 2937,
      "colors": 2938,
      "'),": 2939,
      "Channel": 2940,
      "Timeout": 2941,
      "Color": 2942,
      "repository": 2943,
      "Date": 2944,
      "OU": 2945,
      "Over": 2946,
      "Vari": 2947,
      "reactions": 2948,
      "eno": 2949,
      "itch": 2950,
      "experiment": 2951,
      "working": 2952,
      "scalar": 2953,
      "ibis": 2954,
      "weights": 2955,
      "Supported": 2956,
      "problem": 2957,
      "Helper": 2958,
      "immediately": 2959,
      "Vers": 2960,
      "_group": 2961,
      "yet": 2962,
      "references": 2963,
      "comment": 2964,
      "figure": 2965,
      "simple": 2966,
      "api_": 2967,
      "sheet": 2968,
      "join": 2969,
      "negative": 2970,
      "stitut": 2971,
      "aa": 2972,
      "mp": 2973,
      "sci": 2974,
      "appe": 2975,
      "feed": 2976,
      "predi": 2977,
      "processed": 2978,
      "ip_": 2979,
      "operations": 2980,
      "allow_": 2981,
      "dependency": 2982,
      "normalized": 2983,
      "clean": 2984,
      "rank": 2985,
      "flags": 2986,
      "Mult": 2987,
      "_names": 2988,
      "dro": 2989,
      "gradi": 2990,
      "pag": 2991,
      "}}": 2992,
      "around": 2993,
      "popt": 2994,
      "Reference": 2995,
      "works": 2996,
      "ParseError": 2997,
      "equivalent": 2998,
      "platform": 2999
    },
    "merges": [
      [
        "t",
        "h"
      ],
      [
        "i",
        "n"
      ],
      [
        "r",
        "e"
      ],
      [
        "o",
        "n"
      ],
      [
        "e",
        "r"
      ],
      [
        "a",
        "t"
      ],
      [
        "th",
        "e"
      ],
      [
        "-",
        "-"
      ],
      [
        "o",
        "r"
      ],
      [
        "s",
        "t"
      ],
      [
        "e",
        "n"
      ],
      [
        "a",
        "r"
      ],
      [
        "a",
        "n"
      ],
      [
        "e",
        "s"
      ],
      [
        "a",
        "l"
      ],
      [
        "e",
        "d"
      ],
      [
        "i",
        "on"
      ],
      [
        "a",
        "m"
      ],
      [
        "e",
        "t"
      ],
      [
        "i",
        "s"
      ],
      [
        "t",
        "o"
      ],
      [
        "c",
        "t"
      ],
      [
        "o",
        "f"
      ],
      [
        "l",
        "e"
      ],
      [
        "u",
        "r"
      ],
      [
        "in",
        "g"
      ],
      [
        "a",
        "s"
      ],
      [
        "--",
        "--"
      ],
      [
        "i",
        "t"
      ],
      [
        "r",
        "o"
      ],
      [
        "d",
        "e"
      ],
      [
        "f",
        "i"
      ],
      [
        "en",
        "t"
      ],
      [
        "c",
        "o"
      ],
      [
        "p",
        "ar"
      ],
      [
        "ur",
        "n"
      ],
      [
        "p",
        "e"
      ],
      [
        "h",
        "e"
      ],
      [
        "an",
        "d"
      ],
      [
        "f",
        "or"
      ],
      [
        "c",
        "e"
      ],
      [
        "l",
        "i"
      ],
      [
        "u",
        "n"
      ],
      [
        "s",
        "e"
      ],
      [
        "l",
        "o"
      ],
      [
        "st",
        "r"
      ],
      [
        "u",
        "t"
      ],
      [
        "par",
        "am"
      ],
      [
        "c",
        "h"
      ],
      [
        "u",
        "l"
      ],
      [
        "u",
        "e"
      ],
      [
        "w",
        "i"
      ],
      [
        "d",
        "i"
      ],
      [
        "b",
        "e"
      ],
      [
        "c",
        "on"
      ],
      [
        "re",
        "s"
      ],
      [
        "e",
        "x"
      ],
      [
        "a",
        "d"
      ],
      [
        "u",
        "m"
      ],
      [
        "t",
        "y"
      ],
      [
        "r",
        "a"
      ],
      [
        "i",
        "m"
      ],
      [
        "at",
        "ion"
      ],
      [
        "a",
        "g"
      ],
      [
        "re",
        "t"
      ],
      [
        "e",
        "ct"
      ],
      [
        "am",
        "e"
      ],
      [
        "in",
        "t"
      ],
      [
        "at",
        "e"
      ],
      [
        "v",
        "al"
      ],
      [
        "n",
        "o"
      ],
      [
        "i",
        "d"
      ],
      [
        "er",
        "s"
      ],
      [
        "al",
        "l"
      ],
      [
        "urn",
        "s"
      ],
      [
        "R",
        "et"
      ],
      [
        "p",
        "t"
      ],
      [
        "u",
        "s"
      ],
      [
        "`",
        "`"
      ],
      [
        "T",
        "he"
      ],
      [
        "o",
        "b"
      ],
      [
        "-",
        "+"
      ],
      [
        "ty",
        "pe"
      ],
      [
        "r",
        "i"
      ],
      [
        "ct",
        "ion"
      ],
      [
        "i",
        "f"
      ],
      [
        "-+",
        "-+"
      ],
      [
        "a",
        "b"
      ],
      [
        "i",
        "v"
      ],
      [
        "p",
        "a"
      ],
      [
        "as",
        "s"
      ],
      [
        "c",
        "k"
      ],
      [
        "p",
        "o"
      ],
      [
        "d",
        "at"
      ],
      [
        "k",
        "e"
      ],
      [
        "j",
        "ect"
      ],
      [
        "m",
        "o"
      ],
      [
        "es",
        "s"
      ],
      [
        "ul",
        "t"
      ],
      [
        "u",
        "p"
      ],
      [
        "wi",
        "th"
      ],
      [
        "p",
        "ro"
      ],
      [
        "li",
        "st"
      ],
      [
        "l",
        "l"
      ],
      [
        "m",
        "a"
      ],
      [
        "ro",
        "m"
      ],
      [
        "Ret",
        "urns"
      ],
      [
        "o",
        "l"
      ],
      [
        "f",
        "rom"
      ],
      [
        "ag",
        "e"
      ],
      [
        "n",
        "ame"
      ],
      [
        "l",
        "y"
      ],
      [
        "pt",
        "ion"
      ],
      [
        "c",
        "l"
      ],
      [
        "f",
        "a"
      ],
      [
        "ret",
        "urn"
      ],
      [
        "m",
        "e"
      ],
      [
        "th",
        "at"
      ],
      [
        "v",
        "er"
      ],
      [
        ">",
        ">"
      ],
      [
        "co",
        "m"
      ],
      [
        "ob",
        "ject"
      ],
      [
        "p",
        "er"
      ],
      [
        "fi",
        "le"
      ],
      [
        "on",
        "e"
      ],
      [
        ")",
        ":"
      ],
      [
        "----",
        "----"
      ],
      [
        "no",
        "t"
      ],
      [
        "th",
        "is"
      ],
      [
        "i",
        "l"
      ],
      [
        "c",
        "i"
      ],
      [
        "a",
        "re"
      ],
      [
        "e",
        "m"
      ],
      [
        "b",
        "o"
      ],
      [
        "str",
        "ing"
      ],
      [
        "val",
        "ue"
      ],
      [
        "b",
        "y"
      ],
      [
        "ar",
        "g"
      ],
      [
        "w",
        "h"
      ],
      [
        "p",
        "l"
      ],
      [
        "dat",
        "a"
      ],
      [
        "con",
        "t"
      ],
      [
        "i",
        "g"
      ],
      [
        "q",
        "u"
      ],
      [
        "e",
        "l"
      ],
      [
        ":",
        "`"
      ],
      [
        "I",
        "f"
      ],
      [
        "ab",
        "le"
      ],
      [
        "P",
        "ar"
      ],
      [
        "ex",
        "t"
      ],
      [
        "i",
        "c"
      ],
      [
        "s",
        "u"
      ],
      [
        "s",
        "er"
      ],
      [
        "for",
        "m"
      ],
      [
        "st",
        "an"
      ],
      [
        "re",
        "n"
      ],
      [
        "or",
        "d"
      ],
      [
        "wi",
        "ll"
      ],
      [
        "en",
        "d"
      ],
      [
        "v",
        "i"
      ],
      [
        "ke",
        "y"
      ],
      [
        "m",
        "ent"
      ],
      [
        "s",
        "pe"
      ],
      [
        "s",
        "et"
      ],
      [
        "a",
        "p"
      ],
      [
        "et",
        "ers"
      ],
      [
        "t",
        "r"
      ],
      [
        "d",
        "o"
      ],
      [
        "re",
        "d"
      ],
      [
        "th",
        "er"
      ],
      [
        "n",
        "e"
      ],
      [
        "i",
        "st"
      ],
      [
        "iv",
        "en"
      ],
      [
        "im",
        "e"
      ],
      [
        "-+-+",
        "-+-+"
      ],
      [
        "f",
        "un"
      ],
      [
        "p",
        "ut"
      ],
      [
        "cl",
        "ass"
      ],
      [
        "or",
        "t"
      ],
      [
        "h",
        "o"
      ],
      [
        "T",
        "h"
      ],
      [
        "fa",
        "ult"
      ],
      [
        "ra",
        "y"
      ],
      [
        "pa",
        "th"
      ],
      [
        "I",
        "n"
      ],
      [
        "o",
        "ut"
      ],
      [
        "i",
        "z"
      ],
      [
        "r",
        "or"
      ],
      [
        "v",
        "e"
      ],
      [
        "s",
        "o"
      ],
      [
        "o",
        "d"
      ],
      [
        "t",
        "er"
      ],
      [
        "p",
        "y"
      ],
      [
        "g",
        "iven"
      ],
      [
        "q",
        "ue"
      ],
      [
        "A",
        "r"
      ],
      [
        ".",
        "."
      ],
      [
        "ar",
        "y"
      ],
      [
        "a",
        "c"
      ],
      [
        "o",
        "ption"
      ],
      [
        "Th",
        "is"
      ],
      [
        "a",
        "in"
      ],
      [
        "me",
        "th"
      ],
      [
        "Par",
        "am"
      ],
      [
        "n",
        "um"
      ],
      [
        "at",
        "ed"
      ],
      [
        "stan",
        "ce"
      ],
      [
        "w",
        "e"
      ],
      [
        "Param",
        "eters"
      ],
      [
        "fun",
        "ction"
      ],
      [
        "di",
        "ct"
      ],
      [
        "b",
        "er"
      ],
      [
        "ar",
        "ray"
      ],
      [
        "R",
        "e"
      ],
      [
        "an",
        "g"
      ],
      [
        "c",
        "all"
      ],
      [
        "p",
        "on"
      ],
      [
        "u",
        "re"
      ],
      [
        "N",
        "one"
      ],
      [
        "ci",
        "fi"
      ],
      [
        "T",
        "r"
      ],
      [
        "g",
        "s"
      ],
      [
        "C",
        "on"
      ],
      [
        "p",
        "ort"
      ],
      [
        "--------",
        "--"
      ],
      [
        "c",
        "ess"
      ],
      [
        ">>",
        ">"
      ],
      [
        "meth",
        "od"
      ],
      [
        "de",
        "fault"
      ],
      [
        "in",
        "e"
      ],
      [
        "ent",
        "s"
      ],
      [
        "t",
        "ime"
      ],
      [
        "fi",
        "l"
      ],
      [
        "f",
        "o"
      ],
      [
        "p",
        "le"
      ],
      [
        "m",
        "at"
      ],
      [
        "spe",
        "cifi"
      ],
      [
        "co",
        "de"
      ],
      [
        "p",
        "res"
      ],
      [
        "c",
        "an"
      ],
      [
        "c",
        "ur"
      ],
      [
        "=",
        "="
      ],
      [
        "b",
        "ut"
      ],
      [
        "un",
        "d"
      ],
      [
        "wh",
        "i"
      ],
      [
        "iv",
        "e"
      ],
      [
        "'",
        ","
      ],
      [
        "ren",
        "t"
      ],
      [
        "un",
        "t"
      ],
      [
        "f",
        "lo"
      ],
      [
        "ret",
        "urns"
      ],
      [
        "que",
        "st"
      ],
      [
        "Ar",
        "gs"
      ],
      [
        "ad",
        "d"
      ],
      [
        "a",
        "y"
      ],
      [
        "o",
        "m"
      ],
      [
        "as",
        "e"
      ],
      [
        "whi",
        "ch"
      ],
      [
        "o",
        "t"
      ],
      [
        "u",
        "st"
      ],
      [
        "co",
        "l"
      ],
      [
        "or",
        "k"
      ],
      [
        "val",
        "u"
      ],
      [
        "h",
        "t"
      ],
      [
        "u",
        "se"
      ],
      [
        "h",
        "a"
      ],
      [
        "s",
        "c"
      ],
      [
        "Tr",
        "ue"
      ],
      [
        "po",
        "int"
      ],
      [
        "i",
        "es"
      ],
      [
        "it",
        "y"
      ],
      [
        "a",
        "ch"
      ],
      [
        "c",
        "es"
      ],
      [
        "E",
        "r"
      ],
      [
        "Er",
        "ror"
      ],
      [
        "de",
        "l"
      ],
      [
        "f",
        "e"
      ],
      [
        "fi",
        "g"
      ],
      [
        "us",
        "ed"
      ],
      [
        "num",
        "ber"
      ],
      [
        "at",
        "es"
      ],
      [
        "it",
        "ion"
      ],
      [
        "su",
        "b"
      ],
      [
        "an",
        "s"
      ],
      [
        "at",
        "or"
      ],
      [
        "r",
        "type"
      ],
      [
        "w",
        "ork"
      ],
      [
        "cont",
        "ain"
      ],
      [
        "a",
        "ck"
      ],
      [
        "valu",
        "es"
      ],
      [
        "s",
        "ion"
      ],
      [
        "E",
        "x"
      ],
      [
        "----",
        "--"
      ],
      [
        "at",
        "t"
      ],
      [
        "ne",
        "w"
      ],
      [
        "Ret",
        "urn"
      ],
      [
        "re",
        "quest"
      ],
      [
        "p",
        "re"
      ],
      [
        "en",
        "er"
      ],
      [
        "d",
        "es"
      ],
      [
        "e",
        "v"
      ],
      [
        "i",
        "al"
      ],
      [
        "re",
        "ad"
      ],
      [
        "option",
        "al"
      ],
      [
        "d",
        "s"
      ],
      [
        "ul",
        "d"
      ],
      [
        "p",
        "h"
      ],
      [
        "p",
        "i"
      ],
      [
        "m",
        "ess"
      ],
      [
        "flo",
        "at"
      ],
      [
        "as",
        "k"
      ],
      [
        "or",
        "y"
      ],
      [
        "is",
        "es"
      ],
      [
        "int",
        "er"
      ],
      [
        "lo",
        "ad"
      ],
      [
        "c",
        "ation"
      ],
      [
        "lo",
        "w"
      ],
      [
        "us",
        "er"
      ],
      [
        "c",
        "re"
      ],
      [
        "vi",
        "ce"
      ],
      [
        "s",
        "ho"
      ],
      [
        "ar",
        "t"
      ],
      [
        "ig",
        "n"
      ],
      [
        "a",
        "ct"
      ],
      [
        "re",
        "ct"
      ],
      [
        "specifi",
        "ed"
      ],
      [
        "res",
        "pon"
      ],
      [
        "D",
        "e"
      ],
      [
        "an",
        "t"
      ],
      [
        "res",
        "ult"
      ],
      [
        "f",
        "in"
      ],
      [
        "iz",
        "e"
      ],
      [
        "bo",
        "ol"
      ],
      [
        "in",
        "stance"
      ],
      [
        "at",
        "a"
      ],
      [
        "0",
        "0"
      ],
      [
        "-+-+-+-+",
        "-+-+-+-+"
      ],
      [
        "'",
        ":"
      ],
      [
        "n",
        "am"
      ],
      [
        "ur",
        "ce"
      ],
      [
        "------",
        "-"
      ],
      [
        "it",
        "s"
      ],
      [
        "arg",
        "um"
      ],
      [
        "et",
        "er"
      ],
      [
        "r",
        "it"
      ],
      [
        "com",
        "m"
      ],
      [
        "p",
        "ass"
      ],
      [
        "w",
        "he"
      ],
      [
        ")",
        "."
      ],
      [
        "h",
        "as"
      ],
      [
        "i",
        "fi"
      ],
      [
        "con",
        "fig"
      ],
      [
        "l",
        "ine"
      ],
      [
        "ap",
        "p"
      ],
      [
        "al",
        "se"
      ],
      [
        "a",
        "u"
      ],
      [
        "t",
        "ext"
      ],
      [
        "he",
        "ck"
      ],
      [
        "di",
        "ction"
      ],
      [
        "s",
        "y"
      ],
      [
        "b",
        "ack"
      ],
      [
        "o",
        "ther"
      ],
      [
        "po",
        "s"
      ],
      [
        "re",
        "g"
      ],
      [
        "t",
        "e"
      ],
      [
        "G",
        "et"
      ],
      [
        "p",
        "r"
      ],
      [
        "co",
        "unt"
      ],
      [
        "o",
        "p"
      ],
      [
        "val",
        "id"
      ],
      [
        "cur",
        "rent"
      ],
      [
        "n",
        "ect"
      ],
      [
        "c",
        "or"
      ],
      [
        "an",
        "y"
      ],
      [
        "is",
        "e"
      ],
      [
        "o",
        "k"
      ],
      [
        "de",
        "x"
      ],
      [
        "un",
        "i"
      ],
      [
        "F",
        "alse"
      ],
      [
        "I",
        "D"
      ],
      [
        "u",
        "ct"
      ],
      [
        "mess",
        "age"
      ],
      [
        "v",
        "ers"
      ],
      [
        "g",
        "et"
      ],
      [
        "ar",
        "i"
      ],
      [
        "in",
        "to"
      ],
      [
        "r",
        "y"
      ],
      [
        "am",
        "ple"
      ],
      [
        "diction",
        "ary"
      ],
      [
        "u",
        "b"
      ],
      [
        "on",
        "ly"
      ],
      [
        "tr",
        "ans"
      ],
      [
        "m",
        "in"
      ],
      [
        "d",
        "ing"
      ],
      [
        "s",
        "ing"
      ],
      [
        "a",
        "v"
      ],
      [
        "di",
        "rect"
      ],
      [
        "en",
        "g"
      ],
      [
        "li",
        "ke"
      ],
      [
        "e",
        "ach"
      ],
      [
        "ri",
        "but"
      ],
      [
        "p",
        "p"
      ],
      [
        "c",
        "ord"
      ],
      [
        "wh",
        "en"
      ],
      [
        "sho",
        "uld"
      ],
      [
        "in",
        "put"
      ],
      [
        "c",
        "al"
      ],
      [
        "all",
        "y"
      ],
      [
        "the",
        "n"
      ],
      [
        "ver",
        "t"
      ],
      [
        "d",
        "ate"
      ],
      [
        "l",
        "a"
      ],
      [
        "mo",
        "del"
      ],
      [
        "ro",
        "up"
      ],
      [
        "i",
        "r"
      ],
      [
        "`",
        "."
      ],
      [
        "lo",
        "g"
      ],
      [
        "er",
        "ror"
      ],
      [
        "fi",
        "el"
      ],
      [
        "it",
        "em"
      ],
      [
        "s",
        "i"
      ],
      [
        "t",
        "em"
      ],
      [
        "w",
        "ord"
      ],
      [
        "_",
        "id"
      ],
      [
        "in",
        "dex"
      ],
      [
        "..",
        "."
      ],
      [
        "p",
        "s"
      ],
      [
        "con",
        "nect"
      ],
      [
        "A",
        "d"
      ],
      [
        "C",
        "re"
      ],
      [
        "li",
        "ent"
      ],
      [
        "ex",
        "ist"
      ],
      [
        "pres",
        "ent"
      ],
      [
        "eng",
        "th"
      ],
      [
        "arg",
        "et"
      ],
      [
        "qu",
        "i"
      ],
      [
        "o",
        "ver"
      ],
      [
        "A",
        "n"
      ],
      [
        "y",
        "o"
      ],
      [
        "V",
        "al"
      ],
      [
        "]",
        ","
      ],
      [
        "g",
        "ener"
      ],
      [
        "nam",
        "es"
      ],
      [
        "D",
        "ata"
      ],
      [
        "er",
        "y"
      ],
      [
        "g",
        "r"
      ],
      [
        "t",
        "up"
      ],
      [
        "ob",
        "j"
      ],
      [
        "out",
        "put"
      ],
      [
        "k",
        "en"
      ],
      [
        "g",
        "roup"
      ],
      [
        "vers",
        "ion"
      ],
      [
        "f",
        "f"
      ],
      [
        "*",
        "*"
      ],
      [
        "le",
        "ment"
      ],
      [
        "att",
        "ribut"
      ],
      [
        "a",
        "il"
      ],
      [
        "v",
        "id"
      ],
      [
        "mat",
        "ch"
      ],
      [
        "pro",
        "per"
      ],
      [
        "v",
        "ari"
      ],
      [
        "N",
        "ot"
      ],
      [
        "st",
        "at"
      ],
      [
        "_",
        "s"
      ],
      [
        "ma",
        "x"
      ],
      [
        "lo",
        "t"
      ],
      [
        "_",
        "name"
      ],
      [
        "m",
        "et"
      ],
      [
        "w",
        "n"
      ],
      [
        "r",
        "un"
      ],
      [
        "respon",
        "se"
      ],
      [
        "a",
        "x"
      ],
      [
        "t",
        "ask"
      ],
      [
        "en",
        "ce"
      ],
      [
        "st",
        "ate"
      ],
      [
        "S",
        "t"
      ],
      [
        "R",
        "a"
      ],
      [
        "l",
        "es"
      ],
      [
        "A",
        "P"
      ],
      [
        "re",
        "st"
      ],
      [
        "b",
        "u"
      ],
      [
        "cl",
        "u"
      ],
      [
        "g",
        "e"
      ],
      [
        "comm",
        "and"
      ],
      [
        "par",
        "t"
      ],
      [
        "pro",
        "cess"
      ],
      [
        "arg",
        "s"
      ],
      [
        "th",
        "on"
      ],
      [
        "O",
        "N"
      ],
      [
        "ar",
        "d"
      ],
      [
        "us",
        "ing"
      ],
      [
        "==",
        "=="
      ],
      [
        "r",
        "ame"
      ],
      [
        "return",
        "ed"
      ],
      [
        "ha",
        "ve"
      ],
      [
        "e",
        "c"
      ],
      [
        "f",
        "ul"
      ],
      [
        "no",
        "de"
      ],
      [
        "a",
        "ction"
      ],
      [
        "(",
        ")"
      ],
      [
        "fe",
        "ren"
      ],
      [
        "w",
        "rit"
      ],
      [
        "In",
        "stance"
      ],
      [
        "form",
        "at"
      ],
      [
        "lo",
        "ck"
      ],
      [
        "li",
        "c"
      ],
      [
        "to",
        "ken"
      ],
      [
        "t",
        "arget"
      ],
      [
        "il",
        "d"
      ],
      [
        "fil",
        "es"
      ],
      [
        "L",
        "ist"
      ],
      [
        "str",
        "uct"
      ],
      [
        "d",
        "u"
      ],
      [
        "it",
        "er"
      ],
      [
        "S",
        "et"
      ],
      [
        "ed",
        "i"
      ],
      [
        "ation",
        "s"
      ],
      [
        "fi",
        "r"
      ],
      [
        "en",
        "s"
      ],
      [
        "st",
        "art"
      ],
      [
        "'",
        ")"
      ],
      [
        "am",
        "pl"
      ],
      [
        "in",
        "di"
      ],
      [
        "ar",
        "ch"
      ],
      [
        "ang",
        "e"
      ],
      [
        "S",
        "e"
      ],
      [
        "m",
        "ust"
      ],
      [
        "on",
        "g"
      ],
      [
        "m",
        "is"
      ],
      [
        "2",
        "0"
      ],
      [
        "c",
        "lient"
      ],
      [
        "um",
        "n"
      ],
      [
        "argum",
        "ents"
      ],
      [
        "tup",
        "le"
      ],
      [
        "res",
        "s"
      ],
      [
        "d",
        "is"
      ],
      [
        "de",
        "fin"
      ],
      [
        "e",
        "lement"
      ],
      [
        "uni",
        "code"
      ],
      [
        "pro",
        "vid"
      ],
      [
        ":",
        ":"
      ],
      [
        "li",
        "o"
      ],
      [
        "at",
        "ure"
      ],
      [
        "re",
        "cord"
      ],
      [
        "cont",
        "ext"
      ],
      [
        "l",
        "ength"
      ],
      [
        "wi",
        "lio"
      ],
      [
        "d",
        "er"
      ],
      [
        "st",
        "e"
      ],
      [
        "ro",
        "w"
      ],
      [
        "ec",
        "ut"
      ],
      [
        "p",
        "end"
      ],
      [
        "b",
        "as"
      ],
      [
        "ra",
        "ph"
      ],
      [
        "ev",
        "ent"
      ],
      [
        "c",
        "ri"
      ],
      [
        "Ra",
        "ises"
      ],
      [
        "1",
        "0"
      ],
      [
        "F",
        "or"
      ],
      [
        "l",
        "in"
      ],
      [
        "`",
        ","
      ],
      [
        "param",
        "eter"
      ],
      [
        "qu",
        "ery"
      ],
      [
        "re",
        "mo"
      ],
      [
        "i",
        "p"
      ],
      [
        "yo",
        "u"
      ],
      [
        "c",
        "heck"
      ],
      [
        "res",
        "o"
      ],
      [
        "re",
        "present"
      ],
      [
        "col",
        "umn"
      ],
      [
        "i",
        "le"
      ],
      [
        "s",
        "ign"
      ],
      [
        "t",
        "ra"
      ],
      [
        "id",
        "ent"
      ],
      [
        "ser",
        "vice"
      ],
      [
        "u",
        "g"
      ],
      [
        "c",
        "ul"
      ],
      [
        "P",
        "ro"
      ],
      [
        "fir",
        "st"
      ],
      [
        "L",
        "o"
      ],
      [
        "n",
        "et"
      ],
      [
        "w",
        "o"
      ],
      [
        "pa",
        "ce"
      ],
      [
        "s",
        "up"
      ],
      [
        "(",
        "'"
      ],
      [
        "li",
        "b"
      ],
      [
        "AP",
        "I"
      ],
      [
        "sc",
        "ri"
      ],
      [
        "object",
        "s"
      ],
      [
        "R",
        "es"
      ],
      [
        "re",
        "am"
      ],
      [
        "t",
        "wilio"
      ],
      [
        "ig",
        "ht"
      ],
      [
        "b",
        "le"
      ],
      [
        "y",
        "pe"
      ],
      [
        "key",
        "s"
      ],
      [
        "ra",
        "ises"
      ],
      [
        ":`",
        "~"
      ],
      [
        "contain",
        "ing"
      ],
      [
        "whe",
        "re"
      ],
      [
        "b",
        "et"
      ],
      [
        "form",
        "ation"
      ],
      [
        "Cre",
        "ate"
      ],
      [
        "be",
        "l"
      ],
      [
        "re",
        "e"
      ],
      [
        "se",
        "l"
      ],
      [
        "\"",
        "\""
      ],
      [
        "w",
        "ise"
      ],
      [
        "s",
        "h"
      ],
      [
        "De",
        "fault"
      ],
      [
        "ad",
        "er"
      ],
      [
        "o",
        "per"
      ],
      [
        "in",
        "clu"
      ],
      [
        "if",
        "y"
      ],
      [
        "Ad",
        "d"
      ],
      [
        "fiel",
        "d"
      ],
      [
        "O",
        "ption"
      ],
      [
        "pass",
        "ed"
      ],
      [
        "at",
        "ive"
      ],
      [
        "param",
        "eters"
      ],
      [
        "spe",
        "c"
      ],
      [
        "h",
        "and"
      ],
      [
        "ce",
        "ption"
      ],
      [
        "im",
        "age"
      ],
      [
        "c",
        "ate"
      ],
      [
        "m",
        "it"
      ],
      [
        "re",
        "qui"
      ],
      [
        "a",
        "f"
      ],
      [
        "do",
        "es"
      ],
      [
        "U",
        "R"
      ],
      [
        "ag",
        "es"
      ],
      [
        "se",
        "qu"
      ],
      [
        "point",
        "s"
      ],
      [
        "direct",
        "ory"
      ],
      [
        "C",
        "om"
      ],
      [
        "t",
        "able"
      ],
      [
        "en",
        "sion"
      ],
      [
        "in",
        "d"
      ],
      [
        "im",
        "port"
      ],
      [
        "ser",
        "ver"
      ],
      [
        "sel",
        "f"
      ],
      [
        "b",
        "lock"
      ],
      [
        "so",
        "urce"
      ],
      [
        "en",
        "ame"
      ],
      [
        "w",
        "as"
      ],
      [
        "f",
        "ol"
      ],
      [
        "ur",
        "ation"
      ],
      [
        "provid",
        "ed"
      ],
      [
        "g",
        "er"
      ],
      [
        "T",
        "ype"
      ],
      [
        "ampl",
        "es"
      ],
      [
        "im",
        "um"
      ],
      [
        "we",
        "en"
      ],
      [
        "ord",
        "er"
      ],
      [
        "\"",
        ","
      ],
      [
        "s",
        "im"
      ],
      [
        "bet",
        "ween"
      ],
      [
        ")",
        ","
      ],
      [
        "sing",
        "le"
      ],
      [
        "Val",
        "ue"
      ],
      [
        "s",
        "ed"
      ],
      [
        "s",
        "ame"
      ],
      [
        "t",
        "es"
      ],
      [
        "attribut",
        "e"
      ],
      [
        "option",
        "s"
      ],
      [
        "fo",
        "re"
      ],
      [
        "in",
        "formation"
      ],
      [
        "it",
        "e"
      ],
      [
        "s",
        "on"
      ],
      [
        "st",
        "ream"
      ],
      [
        "re",
        "l"
      ],
      [
        "do",
        "c"
      ],
      [
        "c",
        "y"
      ],
      [
        "str",
        "i"
      ],
      [
        "st",
        "o"
      ],
      [
        "com",
        "pon"
      ],
      [
        "e",
        "w"
      ],
      [
        "al",
        "y"
      ],
      [
        "E",
        "n"
      ],
      [
        "s",
        "um"
      ],
      [
        "-+-+-+-+-+-+-+-+",
        "-+-+-+-+-+-+-+-+"
      ],
      [
        "t",
        "a"
      ],
      [
        "or",
        "m"
      ],
      [
        "al",
        "low"
      ],
      [
        "s",
        "ize"
      ],
      [
        "t",
        "ing"
      ],
      [
        "p",
        "at"
      ],
      [
        "p",
        "es"
      ],
      [
        "by",
        "tes"
      ],
      [
        "v",
        "ed"
      ],
      [
        "t",
        "ag"
      ],
      [
        "st",
        "em"
      ],
      [
        "fi",
        "x"
      ],
      [
        "c",
        "a"
      ],
      [
        "J",
        "S"
      ],
      [
        "ri",
        "x"
      ],
      [
        "S",
        "tr"
      ],
      [
        "ht",
        "t"
      ],
      [
        "pa",
        "ck"
      ],
      [
        "ap",
        "i"
      ],
      [
        "reso",
        "urce"
      ],
      [
        "d",
        "ed"
      ],
      [
        "p",
        "ty"
      ],
      [
        "or",
        "s"
      ],
      [
        "ma",
        "in"
      ],
      [
        "p",
        "ri"
      ],
      [
        "b",
        "in"
      ],
      [
        "de",
        "pend"
      ],
      [
        "des",
        "cri"
      ],
      [
        "S",
        "T"
      ],
      [
        "ess",
        "ion"
      ],
      [
        "JS",
        "ON"
      ],
      [
        "feren",
        "ce"
      ],
      [
        "le",
        "ct"
      ],
      [
        "ex",
        "ecut"
      ],
      [
        "d",
        "f"
      ],
      [
        "ac",
        "count"
      ],
      [
        "af",
        "ter"
      ],
      [
        "s",
        "ha"
      ],
      [
        "fo",
        "und"
      ],
      [
        "bas",
        "ed"
      ],
      [
        "r",
        "on"
      ],
      [
        "connect",
        "ion"
      ],
      [
        "S",
        "er"
      ],
      [
        "whe",
        "ther"
      ],
      [
        "ur",
        "l"
      ],
      [
        "C",
        "heck"
      ],
      [
        "k",
        "w"
      ],
      [
        "/",
        "/"
      ],
      [
        "th",
        "an"
      ],
      [
        "ma",
        "y"
      ],
      [
        "le",
        "v"
      ],
      [
        "la",
        "bel"
      ],
      [
        "H",
        "T"
      ],
      [
        "argum",
        "ent"
      ],
      [
        "m",
        "edi"
      ],
      [
        "th",
        "ro"
      ],
      [
        "st",
        "or"
      ],
      [
        "mis",
        "sion"
      ],
      [
        "o",
        "us"
      ],
      [
        "n",
        "el"
      ],
      [
        "iz",
        "ed"
      ],
      [
        "fil",
        "ename"
      ],
      [
        "ident",
        "ifi"
      ],
      [
        "u",
        "al"
      ],
      [
        "ac",
        "cess"
      ],
      [
        "pr",
        "int"
      ],
      [
        "o",
        "le"
      ],
      [
        "er",
        "t"
      ],
      [
        "j",
        "ob"
      ],
      [
        "p",
        "and"
      ],
      [
        "mat",
        "rix"
      ],
      [
        "mo",
        "re"
      ],
      [
        "stat",
        "us"
      ],
      [
        "p",
        "lot"
      ],
      [
        "T",
        "P"
      ],
      [
        "g",
        "raph"
      ],
      [
        "add",
        "ress"
      ],
      [
        "fil",
        "ter"
      ],
      [
        "m",
        "ult"
      ],
      [
        "v",
        "1"
      ],
      [
        "cre",
        "ated"
      ],
      [
        "result",
        "s"
      ],
      [
        "t",
        "wo"
      ],
      [
        "ail",
        "able"
      ],
      [
        "pl",
        "a"
      ],
      [
        "es",
        "h"
      ],
      [
        "_",
        "_"
      ],
      [
        "the",
        "re"
      ],
      [
        "ent",
        "ry"
      ],
      [
        "N",
        "ame"
      ],
      [
        "t",
        "ies"
      ],
      [
        "me",
        "m"
      ],
      [
        "m",
        "an"
      ],
      [
        "kw",
        "args"
      ],
      [
        "int",
        "e"
      ],
      [
        "em",
        "pty"
      ],
      [
        "py",
        "thon"
      ],
      [
        "o",
        "s"
      ],
      [
        "UR",
        "L"
      ],
      [
        ":",
        "//"
      ],
      [
        "n",
        "ing"
      ],
      [
        "et",
        "e"
      ],
      [
        "cre",
        "ate"
      ],
      [
        "``",
        "."
      ],
      [
        "call",
        "ed"
      ],
      [
        "fa",
        "ce"
      ],
      [
        "P",
        "y"
      ],
      [
        "c",
        "ent"
      ],
      [
        "f",
        "rame"
      ],
      [
        "pos",
        "ition"
      ],
      [
        "at",
        "ing"
      ],
      [
        "se",
        "con"
      ],
      [
        "en",
        "co"
      ],
      [
        "gr",
        "id"
      ],
      [
        "sequ",
        "ence"
      ],
      [
        "av",
        "ailable"
      ],
      [
        "aly",
        "s"
      ],
      [
        "ma",
        "p"
      ],
      [
        "p",
        "age"
      ],
      [
        "d",
        "y"
      ],
      [
        "n",
        "d"
      ],
      [
        "of",
        "f"
      ],
      [
        "m",
        "s"
      ],
      [
        "call",
        "back"
      ],
      [
        "li",
        "mit"
      ],
      [
        "net",
        "work"
      ],
      [
        "ty",
        "pes"
      ],
      [
        "U",
        "n"
      ],
      [
        "di",
        "f"
      ],
      [
        "read",
        "y"
      ],
      [
        "j",
        "son"
      ],
      [
        "al",
        "so"
      ],
      [
        "ne",
        "ed"
      ],
      [
        "o",
        "c"
      ],
      [
        "in",
        "it"
      ],
      [
        "Con",
        "text"
      ],
      [
        "writ",
        "e"
      ],
      [
        "bo",
        "und"
      ],
      [
        "ic",
        "al"
      ],
      [
        "A",
        "l"
      ],
      [
        "stor",
        "age"
      ],
      [
        "c",
        "cess"
      ],
      [
        "ter",
        "n"
      ],
      [
        "orm",
        "al"
      ],
      [
        "i",
        "el"
      ],
      [
        "ment",
        "s"
      ],
      [
        "su",
        "re"
      ],
      [
        "D",
        "i"
      ],
      [
        "P",
        "a"
      ],
      [
        "se",
        "arch"
      ],
      [
        "b",
        "ase"
      ],
      [
        "be",
        "fore"
      ],
      [
        "flo",
        "w"
      ],
      [
        "um",
        "ent"
      ],
      [
        "I",
        "t"
      ],
      [
        "lev",
        "el"
      ],
      [
        "co",
        "ord"
      ],
      [
        "re",
        "f"
      ],
      [
        "config",
        "uration"
      ],
      [
        "g",
        "en"
      ],
      [
        "[",
        "'"
      ],
      [
        "mo",
        "du"
      ],
      [
        "ol",
        "ut"
      ],
      [
        "\"",
        ":"
      ],
      [
        "K",
        "e"
      ],
      [
        "f",
        "l"
      ],
      [
        "cont",
        "ent"
      ],
      [
        "ext",
        "ra"
      ],
      [
        "modu",
        "le"
      ],
      [
        "_",
        "type"
      ],
      [
        "ar",
        "k"
      ],
      [
        "sha",
        "pe"
      ],
      [
        "fun",
        "c"
      ],
      [
        "c",
        "ase"
      ],
      [
        "ex",
        "ception"
      ],
      [
        "I",
        "P"
      ],
      [
        "is",
        "h"
      ],
      [
        "string",
        "s"
      ],
      [
        "G",
        "ener"
      ],
      [
        "i",
        "ther"
      ],
      [
        "et",
        "ime"
      ],
      [
        "t",
        "ri"
      ],
      [
        "v",
        "ect"
      ],
      [
        "sy",
        "stem"
      ],
      [
        "ro",
        "ut"
      ],
      [
        "lo",
        "cation"
      ],
      [
        "ch",
        "ar"
      ],
      [
        "proper",
        "ties"
      ],
      [
        "Par",
        "se"
      ],
      [
        "nd",
        "array"
      ],
      [
        "pe",
        "ct"
      ],
      [
        "as",
        "et"
      ],
      [
        "Con",
        "vert"
      ],
      [
        "C",
        "o"
      ],
      [
        "pla",
        "ce"
      ],
      [
        "c",
        "lo"
      ],
      [
        "U",
        "p"
      ],
      [
        "s",
        "ession"
      ],
      [
        "ex",
        "ample"
      ],
      [
        "lo",
        "b"
      ],
      [
        "{",
        "'"
      ],
      [
        "pro",
        "ject"
      ],
      [
        "other",
        "wise"
      ],
      [
        "Se",
        "e"
      ],
      [
        "mult",
        "i"
      ],
      [
        "be",
        "en"
      ],
      [
        "iz",
        "ation"
      ],
      [
        "n",
        "on"
      ],
      [
        "Q",
        "u"
      ],
      [
        "su",
        "ch"
      ],
      [
        "Ke",
        "y"
      ],
      [
        "item",
        "s"
      ],
      [
        "au",
        "to"
      ],
      [
        "defin",
        "ed"
      ],
      [
        "fol",
        "low"
      ],
      [
        "par",
        "se"
      ],
      [
        "app",
        "li"
      ],
      [
        "N",
        "um"
      ],
      [
        "Value",
        "Error"
      ],
      [
        "pand",
        "as"
      ],
      [
        "alys",
        "is"
      ],
      [
        "pres",
        "sion"
      ],
      [
        "s",
        "es"
      ],
      [
        "s",
        "pace"
      ],
      [
        "lo",
        "cal"
      ],
      [
        "in",
        "fo"
      ],
      [
        "ad",
        "ata"
      ],
      [
        "ro",
        "ot"
      ],
      [
        "sy",
        "n"
      ],
      [
        "HT",
        "TP"
      ],
      [
        "he",
        "ader"
      ],
      [
        "port",
        "ed"
      ],
      [
        "vi",
        "ew"
      ],
      [
        "w",
        "a"
      ],
      [
        "cor",
        "respon"
      ],
      [
        "key",
        "word"
      ],
      [
        "an",
        "ce"
      ],
      [
        "pi",
        "pe"
      ],
      [
        "pl",
        "ay"
      ],
      [
        "ole",
        "an"
      ],
      [
        "al",
        "ready"
      ],
      [
        "le",
        "ction"
      ],
      [
        "e",
        "st"
      ],
      [
        "oper",
        "ation"
      ],
      [
        "ol",
        "d"
      ],
      [
        "cal",
        "cul"
      ],
      [
        "ab",
        "ase"
      ],
      [
        "Option",
        "al"
      ],
      [
        "di",
        "m"
      ],
      [
        "ac",
        "he"
      ],
      [
        "at",
        "ch"
      ],
      [
        "fa",
        "il"
      ],
      [
        "s",
        "end"
      ],
      [
        "en",
        "cy"
      ],
      [
        "com",
        "pl"
      ],
      [
        "M",
        "o"
      ],
      [
        "u",
        "res"
      ],
      [
        "op",
        "en"
      ],
      [
        "p",
        "ub"
      ],
      [
        "proper",
        "ty"
      ],
      [
        "or",
        "ig"
      ],
      [
        "ho",
        "st"
      ],
      [
        "o",
        "se"
      ],
      [
        "'",
        "."
      ],
      [
        "d",
        "et"
      ],
      [
        "au",
        "th"
      ],
      [
        "t",
        "ree"
      ],
      [
        "si",
        "de"
      ],
      [
        "ed",
        "_"
      ],
      [
        "Ar",
        "ray"
      ],
      [
        "Data",
        "F"
      ],
      [
        "time",
        "out"
      ],
      [
        "mo",
        "de"
      ],
      [
        "pp",
        "ing"
      ],
      [
        "orig",
        "in"
      ],
      [
        "par",
        "ser"
      ],
      [
        "dat",
        "etime"
      ],
      [
        "hand",
        "l"
      ],
      [
        "F",
        "ile"
      ],
      [
        "i",
        "o"
      ],
      [
        "ab",
        "les"
      ],
      [
        "ver",
        "y"
      ],
      [
        "Re",
        "ad"
      ],
      [
        "coord",
        "in"
      ],
      [
        "t",
        "ic"
      ],
      [
        "cur",
        "s"
      ],
      [
        "m",
        "l"
      ],
      [
        "ul",
        "ar"
      ],
      [
        "ig",
        "h"
      ],
      [
        "ic",
        "es"
      ],
      [
        "Not",
        "e"
      ],
      [
        "Pa",
        "th"
      ],
      [
        "s",
        "co"
      ],
      [
        "I",
        "d"
      ],
      [
        "requi",
        "red"
      ],
      [
        "s",
        "_"
      ],
      [
        "ra",
        "w"
      ],
      [
        "I",
        "N"
      ],
      [
        "sc",
        "he"
      ],
      [
        "vari",
        "able"
      ],
      [
        "up",
        "date"
      ],
      [
        "Py",
        "thon"
      ],
      [
        "i",
        "ll"
      ],
      [
        "re",
        "ce"
      ],
      [
        "d",
        "ay"
      ],
      [
        "reg",
        "ist"
      ],
      [
        "I",
        "m"
      ],
      [
        "k",
        "es"
      ],
      [
        "ang",
        "u"
      ],
      [
        "te",
        "st"
      ],
      [
        "to",
        "p"
      ],
      [
        "has",
        "h"
      ],
      [
        "ax",
        "is"
      ],
      [
        "et",
        "ch"
      ],
      [
        "sc",
        "al"
      ],
      [
        "Con",
        "t"
      ],
      [
        "add",
        "ed"
      ],
      [
        "de",
        "vice"
      ],
      [
        "ri",
        "es"
      ],
      [
        "in",
        "do"
      ],
      [
        "indo",
        "w"
      ],
      [
        "n",
        "ormal"
      ],
      [
        "per",
        "ature"
      ],
      [
        "sub",
        "scri"
      ],
      [
        "e",
        "ither"
      ],
      [
        "w",
        "ay"
      ],
      [
        "lin",
        "k"
      ],
      [
        "an",
        "nel"
      ],
      [
        "col",
        "or"
      ],
      [
        "O",
        "b"
      ],
      [
        "ent",
        "ial"
      ],
      [
        "per",
        "mission"
      ],
      [
        "M",
        "L"
      ],
      [
        "ce",
        "pt"
      ],
      [
        "y",
        "n"
      ],
      [
        "se",
        "ction"
      ],
      [
        "action",
        "s"
      ],
      [
        "compon",
        "ents"
      ],
      [
        "pre",
        "fix"
      ],
      [
        "Num",
        "ber"
      ],
      [
        "B",
        "u"
      ],
      [
        "spec",
        "ify"
      ],
      [
        "m",
        "ark"
      ],
      [
        "contain",
        "er"
      ],
      [
        "ust",
        "om"
      ],
      [
        "la",
        "st"
      ],
      [
        "====",
        "===="
      ],
      [
        "]",
        ")"
      ],
      [
        "DataF",
        "rame"
      ],
      [
        "1",
        "2"
      ],
      [
        "r",
        "ary"
      ],
      [
        "de",
        "f"
      ],
      [
        "fiel",
        "ds"
      ],
      [
        "ug",
        "h"
      ],
      [
        "fa",
        "ct"
      ],
      [
        "O",
        "n"
      ],
      [
        "z",
        "er"
      ],
      [
        "i",
        "th"
      ],
      [
        "se",
        "e"
      ],
      [
        "ex",
        "pression"
      ],
      [
        "stan",
        "t"
      ],
      [
        "specifi",
        "c"
      ],
      [
        "exist",
        "ing"
      ],
      [
        "inte",
        "ger"
      ],
      [
        "C",
        "all"
      ],
      [
        "the",
        "ir"
      ],
      [
        "ch",
        "ange"
      ],
      [
        "A",
        "T"
      ],
      [
        "dim",
        "ension"
      ],
      [
        "n",
        "p"
      ],
      [
        "set",
        "ting"
      ],
      [
        "ens",
        "or"
      ],
      [
        "com",
        "put"
      ],
      [
        "di",
        "stri"
      ],
      [
        "ck",
        "et"
      ],
      [
        "g",
        "ht"
      ],
      [
        "the",
        "m"
      ],
      [
        "pa",
        "y"
      ],
      [
        "pa",
        "rent"
      ],
      [
        "pa",
        "ir"
      ],
      [
        "dat",
        "abase"
      ],
      [
        "num",
        "py"
      ],
      [
        "wa",
        "it"
      ],
      [
        "p",
        "en"
      ],
      [
        "ch",
        "ang"
      ],
      [
        "C",
        "h"
      ],
      [
        "c",
        "ache"
      ],
      [
        "v",
        "ent"
      ],
      [
        "ful",
        "l"
      ],
      [
        "identifi",
        "er"
      ],
      [
        "ic",
        "ally"
      ],
      [
        "o",
        "ci"
      ],
      [
        "und",
        "er"
      ],
      [
        "init",
        "ial"
      ],
      [
        "tem",
        "perature"
      ],
      [
        "S",
        "pe"
      ],
      [
        "di",
        "r"
      ],
      [
        "no",
        "des"
      ],
      [
        "ant",
        "s"
      ],
      [
        "off",
        "set"
      ],
      [
        "ro",
        "l"
      ],
      [
        "angu",
        "age"
      ],
      [
        "ri",
        "c"
      ],
      [
        "bo",
        "dy"
      ],
      [
        "bo",
        "olean"
      ],
      [
        "represent",
        "ation"
      ],
      [
        "b",
        "it"
      ],
      [
        "c",
        "ed"
      ],
      [
        "mo",
        "unt"
      ],
      [
        "so",
        "me"
      ],
      [
        "f",
        "t"
      ],
      [
        "up",
        "dat"
      ],
      [
        "contain",
        "s"
      ],
      [
        "ri",
        "e"
      ],
      [
        "ass",
        "oci"
      ],
      [
        "uni",
        "que"
      ],
      [
        "A",
        "u"
      ],
      [
        "tr",
        "y"
      ],
      [
        "doc",
        "ument"
      ],
      [
        "inclu",
        "de"
      ],
      [
        "T",
        "ime"
      ],
      [
        "and",
        "om"
      ],
      [
        "D",
        "o"
      ],
      [
        "U",
        "T"
      ],
      [
        "wi",
        "d"
      ],
      [
        "Re",
        "mo"
      ],
      [
        "\"\"",
        "\""
      ],
      [
        "b",
        "ers"
      ],
      [
        "l",
        "ess"
      ],
      [
        "``",
        ","
      ],
      [
        "vi",
        "de"
      ],
      [
        "mess",
        "ages"
      ],
      [
        "v",
        "is"
      ],
      [
        "con",
        "vert"
      ],
      [
        "s",
        "a"
      ],
      [
        "then",
        "tic"
      ],
      [
        "char",
        "act"
      ],
      [
        "c",
        "ustom"
      ],
      [
        "with",
        "in"
      ],
      [
        "e",
        "red"
      ],
      [
        "n",
        "_"
      ],
      [
        "s",
        "olut"
      ],
      [
        "v",
        "es"
      ],
      [
        "re",
        "ference"
      ],
      [
        "res",
        "h"
      ],
      [
        "bo",
        "x"
      ],
      [
        "attribut",
        "es"
      ],
      [
        "indi",
        "c"
      ],
      [
        "i",
        "b"
      ],
      [
        "ma",
        "ke"
      ],
      [
        "multi",
        "ple"
      ],
      [
        "p",
        "li"
      ],
      [
        "im",
        "ple"
      ],
      [
        "do",
        "wn"
      ],
      [
        "t",
        "t"
      ],
      [
        "qu",
        "al"
      ],
      [
        "_",
        "path"
      ],
      [
        "ra",
        "ise"
      ],
      [
        "----",
        "-"
      ],
      [
        "stan",
        "ces"
      ],
      [
        "at",
        "tr"
      ],
      [
        "met",
        "adata"
      ],
      [
        "il",
        "ity"
      ],
      [
        "Ex",
        "ample"
      ],
      [
        "pos",
        "si"
      ],
      [
        "struct",
        "ure"
      ],
      [
        "descri",
        "ption"
      ],
      [
        "the",
        "y"
      ],
      [
        "r",
        "ange"
      ],
      [
        "b",
        "ar"
      ],
      [
        "ma",
        "th"
      ],
      [
        "vi",
        "ron"
      ],
      [
        "a",
        "st"
      ],
      [
        "Re",
        "quest"
      ],
      [
        "iter",
        "able"
      ],
      [
        "W",
        "h"
      ],
      [
        "c",
        "ert"
      ],
      [
        "z",
        "ure"
      ],
      [
        "se",
        "lect"
      ],
      [
        "dat",
        "aset"
      ],
      [
        ">",
        "`"
      ],
      [
        "l",
        "ed"
      ],
      [
        "max",
        "imum"
      ],
      [
        "1",
        "6"
      ],
      [
        "t",
        "im"
      ],
      [
        "ition",
        "al"
      ],
      [
        "gener",
        "ator"
      ],
      [
        "Str",
        "ing"
      ],
      [
        "rie",
        "ve"
      ],
      [
        "me",
        "an"
      ],
      [
        "su",
        "ccess"
      ],
      [
        "lin",
        "es"
      ],
      [
        "v",
        "o"
      ],
      [
        "st",
        "and"
      ],
      [
        "ma",
        "pping"
      ],
      [
        "Ex",
        "amples"
      ],
      [
        "correspon",
        "ding"
      ],
      [
        "htt",
        "ps"
      ],
      [
        "Ob",
        "ject"
      ],
      [
        "an",
        "alysis"
      ],
      [
        "vect",
        "or"
      ],
      [
        "exist",
        "s"
      ],
      [
        "tr",
        "ue"
      ],
      [
        "inter",
        "face"
      ],
      [
        "f",
        "s"
      ],
      [
        "er",
        "_"
      ],
      [
        "R",
        "un"
      ],
      [
        "k",
        "no"
      ],
      [
        "u",
        "d"
      ],
      [
        "sche",
        "ma"
      ],
      [
        "i",
        "str"
      ],
      [
        "param",
        "s"
      ],
      [
        "t",
        "al"
      ],
      [
        "trans",
        "form"
      ],
      [
        "W",
        "he"
      ],
      [
        "l",
        "ay"
      ],
      [
        "v",
        "ol"
      ],
      [
        "M",
        "ess"
      ],
      [
        "]",
        ":"
      ],
      [
        "que",
        "ue"
      ],
      [
        "Not",
        "es"
      ],
      [
        "=",
        "'"
      ],
      [
        "A",
        "s"
      ],
      [
        "g",
        "lob"
      ],
      [
        "s",
        "ent"
      ],
      [
        "fo",
        "o"
      ],
      [
        "C",
        "al"
      ],
      [
        "m",
        "esh"
      ],
      [
        "fe",
        "rent"
      ],
      [
        "n",
        "ext"
      ],
      [
        "f",
        "re"
      ],
      [
        "P",
        "o"
      ],
      [
        "R",
        "E"
      ],
      [
        "st",
        "am"
      ],
      [
        "be",
        "ing"
      ],
      [
        "element",
        "s"
      ],
      [
        "record",
        "s"
      ],
      [
        "(",
        "["
      ],
      [
        "e",
        "p"
      ],
      [
        "ion",
        "s"
      ],
      [
        "ic",
        "s"
      ],
      [
        "Bu",
        "ild"
      ],
      [
        "g",
        "o"
      ],
      [
        "subscri",
        "ption"
      ],
      [
        "ch",
        "ild"
      ],
      [
        "defin",
        "ition"
      ],
      [
        "th",
        "ing"
      ],
      [
        "scri",
        "pt"
      ],
      [
        "gr",
        "am"
      ],
      [
        "pat",
        "tern"
      ],
      [
        "lo",
        "ok"
      ],
      [
        "se",
        "c"
      ],
      [
        "ass",
        "ign"
      ],
      [
        "Lo",
        "ad"
      ],
      [
        "distri",
        "but"
      ],
      [
        "ur",
        "ces"
      ],
      [
        "he",
        "l"
      ],
      [
        "au",
        "thentic"
      ],
      [
        "Val",
        "id"
      ],
      [
        "'",
        "]"
      ],
      [
        "O",
        "pen"
      ],
      [
        "r",
        "andom"
      ],
      [
        "c",
        "le"
      ],
      [
        "or",
        "g"
      ],
      [
        "to",
        "_"
      ],
      [
        "N",
        "o"
      ],
      [
        "is",
        "ed"
      ],
      [
        "c",
        "_"
      ],
      [
        "g",
        "or"
      ],
      [
        "s",
        "ort"
      ],
      [
        "secon",
        "ds"
      ],
      [
        "pay",
        "load"
      ],
      [
        "_",
        "key"
      ],
      [
        "c",
        "red"
      ],
      [
        "s",
        "ample"
      ],
      [
        "Default",
        "s"
      ],
      [
        "rece",
        "iv"
      ],
      [
        "p",
        "ly"
      ],
      [
        "viron",
        "ment"
      ],
      [
        "A",
        "zure"
      ],
      [
        "am",
        "es"
      ],
      [
        "sto",
        "re"
      ],
      [
        "G",
        "iven"
      ],
      [
        "request",
        "s"
      ],
      [
        "associ",
        "ated"
      ],
      [
        "m",
        "y"
      ],
      [
        "st",
        "all"
      ],
      [
        "co",
        "py"
      ],
      [
        "follow",
        "ing"
      ],
      [
        "U",
        "se"
      ],
      [
        "ach",
        "ed"
      ],
      [
        "get",
        "_"
      ],
      [
        "Cre",
        "ates"
      ],
      [
        "s",
        "s"
      ],
      [
        "}",
        ","
      ],
      [
        "ug",
        "in"
      ],
      [
        "zer",
        "o"
      ],
      [
        "ra",
        "di"
      ],
      [
        "ch",
        "annel"
      ],
      [
        "ri",
        "ev"
      ],
      [
        "(",
        ":"
      ],
      [
        "ff",
        "ect"
      ],
      [
        "htt",
        "p"
      ],
      [
        "he",
        "ad"
      ],
      [
        "ser",
        "ies"
      ],
      [
        "c",
        "ry"
      ],
      [
        "ste",
        "p"
      ],
      [
        "A",
        "pp"
      ],
      [
        "o",
        "g"
      ],
      [
        "sy",
        "m"
      ],
      [
        "A",
        "R"
      ],
      [
        "m",
        "er"
      ],
      [
        "ang",
        "o"
      ],
      [
        "Cal",
        "cul"
      ],
      [
        "j",
        "ust"
      ],
      [
        "dif",
        "ferent"
      ],
      [
        "extra",
        "ct"
      ],
      [
        "Mess",
        "age"
      ],
      [
        "path",
        "s"
      ],
      [
        "L",
        "E"
      ],
      [
        "re",
        "ction"
      ],
      [
        "we",
        "ight"
      ],
      [
        "Con",
        "fig"
      ],
      [
        "S",
        "ub"
      ],
      [
        "N",
        "A"
      ],
      [
        "Re",
        "g"
      ],
      [
        "at",
        "er"
      ],
      [
        "cl",
        "ust"
      ],
      [
        "ifi",
        "cation"
      ],
      [
        "lib",
        "rary"
      ],
      [
        "ap",
        "pro"
      ],
      [
        "do",
        "main"
      ],
      [
        "rel",
        "ative"
      ],
      [
        "1",
        "00"
      ],
      [
        "C",
        "ol"
      ],
      [
        "ser",
        "t"
      ],
      [
        "bu",
        "ild"
      ],
      [
        "l",
        "ong"
      ],
      [
        "represent",
        "ing"
      ],
      [
        "thro",
        "ugh"
      ],
      [
        "Whe",
        "ther"
      ],
      [
        "P",
        "E"
      ],
      [
        "r",
        "id"
      ],
      [
        "z",
        "h"
      ],
      [
        "per",
        "form"
      ],
      [
        "um",
        "e"
      ],
      [
        "6",
        "4"
      ],
      [
        "W",
        "rit"
      ],
      [
        "ch",
        "ed"
      ],
      [
        "possi",
        "ble"
      ],
      [
        "ste",
        "ad"
      ],
      [
        "r",
        "an"
      ],
      [
        ",",
        ")"
      ],
      [
        "ob",
        "ser"
      ],
      [
        "tem",
        "pl"
      ],
      [
        "Com",
        "put"
      ],
      [
        "w",
        "ar"
      ],
      [
        "w",
        "ant"
      ],
      [
        "method",
        "s"
      ],
      [
        "n",
        "al"
      ],
      [
        "C",
        "P"
      ],
      [
        "v",
        "20"
      ],
      [
        "mo",
        "st"
      ],
      [
        "with",
        "out"
      ],
      [
        "_",
        "data"
      ],
      [
        "label",
        "s"
      ],
      [
        "P",
        "O"
      ],
      [
        "d",
        "eter"
      ],
      [
        "g",
        "ment"
      ],
      [
        "k",
        "er"
      ],
      [
        "pp",
        "ed"
      ],
      [
        "column",
        "s"
      ],
      [
        "stam",
        "p"
      ],
      [
        "al",
        "le"
      ],
      [
        "ser",
        "ial"
      ],
      [
        "thro",
        "at"
      ],
      [
        ".",
        ","
      ],
      [
        "M",
        "E"
      ],
      [
        "res",
        "ol"
      ],
      [
        "ci",
        "es"
      ],
      [
        "default",
        "s"
      ],
      [
        "to",
        "tal"
      ],
      [
        "ul",
        "ation"
      ],
      [
        "um",
        "ents"
      ],
      [
        "Con",
        "nect"
      ],
      [
        "D",
        "E"
      ],
      [
        "_",
        "like"
      ],
      [
        "se",
        "par"
      ],
      [
        "can",
        "not"
      ],
      [
        "m",
        "c"
      ],
      [
        "it",
        "ive"
      ],
      [
        "met",
        "ric"
      ],
      [
        "\"",
        ")"
      ],
      [
        "pl",
        "ugin"
      ],
      [
        "pack",
        "age"
      ],
      [
        "as",
        "es"
      ],
      [
        "ig",
        "no"
      ],
      [
        "nam",
        "ed"
      ],
      [
        "O",
        "ther"
      ],
      [
        "di",
        "stance"
      ],
      [
        "cont",
        "rol"
      ],
      [
        "Tr",
        "ans"
      ],
      [
        "max",
        "_"
      ],
      [
        "par",
        "sed"
      ],
      [
        "call",
        "able"
      ],
      [
        "X",
        "X"
      ],
      [
        "re",
        "port"
      ],
      [
        "de",
        "cor"
      ],
      [
        "pipe",
        "line"
      ],
      [
        "form",
        "att"
      ],
      [
        "Ar",
        "g"
      ],
      [
        "sto",
        "red"
      ],
      [
        "fl",
        "ag"
      ],
      [
        "Up",
        "date"
      ],
      [
        "origin",
        "al"
      ],
      [
        "imple",
        "ment"
      ],
      [
        "T",
        "ask"
      ],
      [
        "f",
        "er"
      ],
      [
        "en",
        "vironment"
      ],
      [
        "2",
        "00"
      ],
      [
        "M",
        "edi"
      ],
      [
        "f",
        "ra"
      ],
      [
        "l",
        "ish"
      ],
      [
        "x",
        "el"
      ],
      [
        "i",
        "ce"
      ],
      [
        "m",
        "on"
      ],
      [
        "w",
        "er"
      ],
      [
        "ent",
        "ries"
      ],
      [
        "con",
        "d"
      ],
      [
        "array",
        "_like"
      ],
      [
        "tra",
        "ck"
      ],
      [
        "appli",
        "cation"
      ],
      [
        "S",
        "end"
      ],
      [
        "s",
        "p"
      ],
      [
        "col",
        "lection"
      ],
      [
        "_s",
        "ize"
      ],
      [
        "det",
        "ail"
      ],
      [
        "l",
        "anguage"
      ],
      [
        "o",
        "pt"
      ],
      [
        "ex",
        "pect"
      ],
      [
        "compon",
        "ent"
      ],
      [
        "0",
        "x"
      ],
      [
        "con",
        "struct"
      ],
      [
        "iz",
        "es"
      ],
      [
        "ag",
        "er"
      ],
      [
        "ab",
        "out"
      ],
      [
        "Set",
        "s"
      ],
      [
        "v",
        "fs"
      ],
      [
        "em",
        "pt"
      ],
      [
        "df",
        "vfs"
      ],
      [
        "F",
        "ind"
      ],
      [
        "s",
        "ensor"
      ],
      [
        "in",
        "stead"
      ],
      [
        "ce",
        "ll"
      ],
      [
        "-",
        ">"
      ],
      [
        "pl",
        "an"
      ],
      [
        "specifi",
        "cation"
      ],
      [
        "2",
        "5"
      ],
      [
        "P",
        "er"
      ],
      [
        "W",
        "e"
      ],
      [
        "]",
        "):"
      ],
      [
        "ex",
        "c"
      ],
      [
        "pr",
        "of"
      ],
      [
        "indi",
        "ces"
      ],
      [
        "v20",
        "10"
      ],
      [
        "ho",
        "w"
      ],
      [
        "po",
        "st"
      ],
      [
        "fin",
        "d"
      ],
      [
        "Res",
        "pon"
      ],
      [
        "Wh",
        "en"
      ],
      [
        "S",
        "S"
      ],
      [
        "in",
        "stances"
      ],
      [
        "t",
        "it"
      ],
      [
        "le",
        "ase"
      ],
      [
        "error",
        "s"
      ],
      [
        "coordin",
        "ates"
      ],
      [
        "et",
        "s"
      ],
      [
        "sup",
        "ported"
      ],
      [
        "bin",
        "ary"
      ],
      [
        "a",
        "ke"
      ],
      [
        "Au",
        "th"
      ],
      [
        "enco",
        "ded"
      ],
      [
        "ma",
        "il"
      ],
      [
        "us",
        "es"
      ],
      [
        "po",
        "p"
      ],
      [
        "th",
        "resh"
      ],
      [
        "the",
        "se"
      ],
      [
        "he",
        "re"
      ],
      [
        "gener",
        "ated"
      ],
      [
        "remo",
        "ve"
      ],
      [
        "D",
        "at"
      ],
      [
        "un",
        "it"
      ],
      [
        "bo",
        "th"
      ],
      [
        "match",
        "ing"
      ],
      [
        "th",
        "read"
      ],
      [
        "ar",
        "ies"
      ],
      [
        "ri",
        "ght"
      ],
      [
        "zh",
        "mc"
      ],
      [
        "zhmc",
        "client"
      ],
      [
        "w",
        "ra"
      ],
      [
        "di",
        "rection"
      ],
      [
        "ul",
        "es"
      ],
      [
        "unt",
        "il"
      ],
      [
        "1",
        "9"
      ],
      [
        "S",
        "o"
      ],
      [
        "i",
        "red"
      ],
      [
        "t",
        "en"
      ],
      [
        "Respon",
        "se"
      ],
      [
        "(",
        "\""
      ],
      [
        "B",
        "y"
      ],
      [
        "T",
        "o"
      ],
      [
        "w",
        "indow"
      ],
      [
        "in",
        "stall"
      ],
      [
        "ev",
        "ents"
      ],
      [
        "user",
        "name"
      ],
      [
        "m",
        "ag"
      ],
      [
        "im",
        "al"
      ],
      [
        "int",
        "s"
      ],
      [
        "cord",
        "ing"
      ],
      [
        "un",
        "k"
      ],
      [
        "reg",
        "ion"
      ],
      [
        "feren",
        "ces"
      ],
      [
        "pub",
        "lic"
      ],
      [
        "pi",
        "xel"
      ],
      [
        "i",
        "x"
      ],
      [
        "o",
        "ur"
      ],
      [
        "in",
        "ation"
      ],
      [
        "att",
        "empt"
      ],
      [
        "remo",
        "ved"
      ],
      [
        "kno",
        "wn"
      ],
      [
        "clust",
        "er"
      ],
      [
        "D",
        "el"
      ],
      [
        "S",
        "E"
      ],
      [
        "U",
        "ser"
      ],
      [
        "s",
        "he"
      ],
      [
        "ht",
        "ml"
      ],
      [
        "d",
        "a"
      ],
      [
        "--------",
        "--------"
      ],
      [
        "function",
        "s"
      ],
      [
        "yo",
        "ur"
      ],
      [
        "pli",
        "ed"
      ],
      [
        "stand",
        "ard"
      ],
      [
        "1",
        "5"
      ],
      [
        "3",
        "2"
      ],
      [
        "ra",
        "ised"
      ],
      [
        "ag",
        "ain"
      ],
      [
        "po",
        "res"
      ],
      [
        "by",
        "te"
      ],
      [
        "ext",
        "ension"
      ],
      [
        "ant",
        "ity"
      ],
      [
        "mis",
        "sing"
      ],
      [
        "secon",
        "d"
      ],
      [
        "D",
        "es"
      ],
      [
        "co",
        "re"
      ],
      [
        "Ex",
        "ception"
      ],
      [
        "handl",
        "er"
      ],
      [
        "ent",
        "ity"
      ],
      [
        "pro",
        "to"
      ],
      [
        "time",
        "stamp"
      ],
      [
        "iel",
        "d"
      ],
      [
        "wid",
        "th"
      ],
      [
        "distribut",
        "ion"
      ],
      [
        "class",
        "es"
      ],
      [
        "requi",
        "re"
      ],
      [
        "tim",
        "es"
      ],
      [
        "templ",
        "ate"
      ],
      [
        "O",
        "R"
      ],
      [
        "l",
        "en"
      ],
      [
        "mo",
        "d"
      ],
      [
        "Ex",
        "ecut"
      ],
      [
        "Ser",
        "vice"
      ],
      [
        "g",
        "re"
      ],
      [
        "p",
        "or"
      ],
      [
        "fre",
        "qu"
      ],
      [
        "tit",
        "le"
      ],
      [
        "dis",
        "play"
      ],
      [
        "remo",
        "te"
      ],
      [
        "e",
        "very"
      ],
      [
        "it",
        "es"
      ],
      [
        "po",
        "l"
      ],
      [
        "Gener",
        "ate"
      ],
      [
        "E",
        "vent"
      ],
      [
        "H",
        "o"
      ],
      [
        "not",
        "e"
      ],
      [
        "set",
        "s"
      ],
      [
        "re",
        "place"
      ],
      [
        "+",
        "-+-+-+-+-+-+-+-+-+-+-+-+-+-+-+-+"
      ],
      [
        "bo",
        "ok"
      ],
      [
        "pl",
        "it"
      ],
      [
        "end",
        "point"
      ],
      [
        "pres",
        "sure"
      ],
      [
        "vari",
        "ables"
      ],
      [
        "H",
        "and"
      ],
      [
        "st",
        "op"
      ],
      [
        "ang",
        "le"
      ],
      [
        "request",
        "ed"
      ],
      [
        "back",
        "end"
      ],
      [
        "allow",
        "ed"
      ],
      [
        "b",
        "ra"
      ],
      [
        "t",
        "s"
      ],
      [
        "at",
        "ures"
      ],
      [
        "al",
        "i"
      ],
      [
        "ul",
        "l"
      ],
      [
        ")",
        ")"
      ],
      [
        "1",
        "1"
      ],
      [
        "b",
        "ed"
      ],
      [
        "d",
        "uct"
      ],
      [
        "f",
        "fi"
      ],
      [
        "g",
        "u"
      ],
      [
        "g",
        "ing"
      ],
      [
        "p",
        "ret"
      ],
      [
        "Par",
        "ses"
      ],
      [
        "ac",
        "cording"
      ],
      [
        "row",
        "s"
      ],
      [
        "i",
        "ly"
      ],
      [
        "ful",
        "ly"
      ],
      [
        "R",
        "F"
      ],
      [
        "[",
        "["
      ],
      [
        "s",
        "ite"
      ],
      [
        "load",
        "ed"
      ],
      [
        "ff",
        "er"
      ],
      [
        "t",
        "ed"
      ],
      [
        "u",
        "le"
      ],
      [
        "un",
        "ction"
      ],
      [
        "ph",
        "er"
      ],
      [
        "'",
        "'"
      ],
      [
        "l",
        "d"
      ],
      [
        "im",
        "esh"
      ],
      [
        "cor",
        "rect"
      ],
      [
        "setting",
        "s"
      ],
      [
        "_",
        "token"
      ],
      [
        "c",
        "ated"
      ],
      [
        "m",
        "ask"
      ],
      [
        "an",
        "not"
      ],
      [
        "it",
        "ies"
      ],
      [
        "id",
        "s"
      ],
      [
        "_",
        "list"
      ],
      [
        "_",
        "file"
      ],
      [
        "de",
        "c"
      ],
      [
        "de",
        "p"
      ],
      [
        "iel",
        "ds"
      ],
      [
        "u",
        "red"
      ],
      [
        "le",
        "ft"
      ],
      [
        "ing",
        "_"
      ],
      [
        "work",
        "er"
      ],
      [
        "sup",
        "plied"
      ],
      [
        "regist",
        "ered"
      ],
      [
        "authentic",
        "ation"
      ],
      [
        "G",
        "raph"
      ],
      [
        "g",
        "es"
      ],
      [
        "di",
        "fi"
      ],
      [
        "vi",
        "ous"
      ],
      [
        "compl",
        "ete"
      ],
      [
        "solut",
        "e"
      ],
      [
        "i",
        "de"
      ],
      [
        "de",
        "st"
      ],
      [
        "pass",
        "word"
      ],
      [
        "Ad",
        "ds"
      ],
      [
        "ca",
        "use"
      ],
      [
        "compl",
        "et"
      ],
      [
        "Y",
        "Y"
      ],
      [
        "s",
        "m"
      ],
      [
        "lo",
        "op"
      ],
      [
        "trans",
        "action"
      ],
      [
        "gener",
        "ate"
      ],
      [
        "Al",
        "so"
      ],
      [
        "On",
        "ly"
      ],
      [
        "v",
        "ices"
      ],
      [
        "he",
        "ight"
      ],
      [
        "sa",
        "ve"
      ],
      [
        "3",
        "0"
      ],
      [
        "a",
        "k"
      ],
      [
        "al",
        "ong"
      ],
      [
        "con",
        "f"
      ],
      [
        "we",
        "b"
      ],
      [
        "+-+-+-+-+-+-+-+-+-+-+-+-+-+-+-+-+",
        "-+-+-+-+-+-+-+-+-+-+-+-+-+-+-+-+"
      ],
      [
        "Q",
        "L"
      ],
      [
        "ro",
        "und"
      ],
      [
        "Data",
        "Array"
      ],
      [
        "sec",
        "ret"
      ],
      [
        "Other",
        "wise"
      ],
      [
        "D",
        "is"
      ],
      [
        "F",
        "il"
      ],
      [
        "I",
        "O"
      ],
      [
        "f",
        "etch"
      ],
      [
        "i",
        "ble"
      ],
      [
        "in",
        "ce"
      ],
      [
        "ist",
        "ics"
      ],
      [
        "ac",
        "cept"
      ],
      [
        "cred",
        "ential"
      ],
      [
        "s",
        "ers"
      ],
      [
        "en",
        "cies"
      ],
      [
        "Par",
        "ser"
      ],
      [
        "sign",
        "ature"
      ],
      [
        "enco",
        "ding"
      ],
      [
        "way",
        "s"
      ],
      [
        "are",
        "a"
      ],
      [
        "call",
        "s"
      ],
      [
        "run",
        "ning"
      ],
      [
        "Spe",
        "cifi"
      ],
      [
        "e",
        "ar"
      ],
      [
        "e",
        "ffect"
      ],
      [
        "in",
        "valid"
      ],
      [
        "co",
        "uld"
      ],
      [
        "vi",
        "a"
      ],
      [
        "connect",
        "ed"
      ],
      [
        "ax",
        "es"
      ],
      [
        ":`~",
        "."
      ],
      [
        "Remo",
        "ve"
      ],
      [
        "_",
        "point"
      ],
      [
        "m",
        "ine"
      ],
      [
        "end",
        "ed"
      ],
      [
        "mem",
        "ory"
      ],
      [
        "Calcul",
        "ate"
      ],
      [
        "W",
        "ork"
      ],
      [
        "th",
        "ose"
      ],
      [
        "frequ",
        "ency"
      ],
      [
        "T",
        "I"
      ],
      [
        "b",
        "atch"
      ],
      [
        "i",
        "e"
      ],
      [
        "g",
        "y"
      ],
      [
        "p",
        "n"
      ],
      [
        "con",
        "s"
      ],
      [
        "ass",
        "um"
      ],
      [
        "pair",
        "s"
      ],
      [
        "X",
        "ML"
      ],
      [
        "`",
        ")"
      ],
      [
        "c",
        "rit"
      ],
      [
        "e",
        "qual"
      ],
      [
        "in",
        "sert"
      ],
      [
        "de",
        "red"
      ],
      [
        "app",
        "ly"
      ],
      [
        "updat",
        "ed"
      ],
      [
        "istr",
        "y"
      ],
      [
        "formatt",
        "ed"
      ],
      [
        "Arg",
        "uments"
      ],
      [
        "ffi",
        "ci"
      ],
      [
        "fi",
        "ll"
      ],
      [
        "if",
        "act"
      ],
      [
        "Ex",
        "tra"
      ],
      [
        "gor",
        "ith"
      ],
      [
        "B",
        "o"
      ],
      [
        "d",
        "on"
      ],
      [
        "to",
        "ol"
      ],
      [
        "ab",
        "led"
      ],
      [
        "are",
        "d"
      ],
      [
        "data",
        "frame"
      ],
      [
        "sho",
        "w"
      ],
      [
        "act",
        "ive"
      ],
      [
        "wo",
        "uld"
      ],
      [
        "C",
        "lient"
      ],
      [
        "L",
        "ength"
      ],
      [
        "ur",
        "ing"
      ],
      [
        "ne",
        "cess"
      ],
      [
        "Qu",
        "ery"
      ],
      [
        "N",
        "et"
      ],
      [
        "d",
        "b"
      ],
      [
        "p",
        "_"
      ],
      [
        "match",
        "es"
      ],
      [
        "charact",
        "ers"
      ],
      [
        "C",
        "l"
      ],
      [
        "o",
        "wn"
      ],
      [
        "al",
        "s"
      ],
      [
        "pro",
        "du"
      ],
      [
        "pre",
        "vious"
      ],
      [
        "P",
        "r"
      ],
      [
        "j",
        "o"
      ],
      [
        "con",
        "sum"
      ],
      [
        "g",
        "ed"
      ],
      [
        "s",
        "k"
      ],
      [
        "ab",
        "solute"
      ],
      [
        "Comput",
        "e"
      ],
      [
        "c",
        "li"
      ],
      [
        "i",
        "od"
      ],
      [
        "st",
        "ed"
      ],
      [
        "pro",
        "duct"
      ],
      [
        "F",
        "I"
      ],
      [
        "d",
        "en"
      ],
      [
        "it",
        "u"
      ],
      [
        "Mo",
        "del"
      ],
      [
        "vide",
        "o"
      ],
      [
        "F",
        "unction"
      ],
      [
        "a",
        "pt"
      ],
      [
        "h",
        "igh"
      ],
      [
        "ab",
        "o"
      ],
      [
        "red",
        "u"
      ],
      [
        "reso",
        "urces"
      ],
      [
        "auto",
        "mat"
      ],
      [
        "detail",
        "s"
      ],
      [
        "c",
        "he"
      ],
      [
        "i",
        "ck"
      ],
      [
        "l",
        "at"
      ],
      [
        "cont",
        "ents"
      ],
      [
        "ive",
        "ly"
      ],
      [
        "direct",
        "ly"
      ],
      [
        "Pro",
        "cess"
      ],
      [
        "t",
        "ers"
      ],
      [
        "al",
        "og"
      ],
      [
        "as",
        "yn"
      ],
      [
        "head",
        "ers"
      ],
      [
        "M",
        "A"
      ],
      [
        "g",
        "ory"
      ],
      [
        "s",
        "av"
      ],
      [
        "u",
        "ally"
      ],
      [
        "ut",
        "ure"
      ],
      [
        "po",
        "re"
      ],
      [
        "po",
        "ol"
      ],
      [
        "spe",
        "ct"
      ],
      [
        "In",
        "put"
      ],
      [
        "group",
        "s"
      ],
      [
        "ms",
        "g"
      ],
      [
        "F",
        "etch"
      ],
      [
        "c",
        "at"
      ],
      [
        "st",
        "y"
      ],
      [
        "Res",
        "ult"
      ],
      [
        "riev",
        "es"
      ],
      [
        "In",
        "dex"
      ],
      [
        "hand",
        "le"
      ],
      [
        "scal",
        "e"
      ],
      [
        "o",
        "und"
      ],
      [
        "mo",
        "difi"
      ],
      [
        "mem",
        "ber"
      ],
      [
        "Qu",
        "antity"
      ],
      [
        "i",
        "re"
      ],
      [
        "per",
        "iod"
      ],
      [
        "bo",
        "ard"
      ],
      [
        "add",
        "itional"
      ],
      [
        "medi",
        "ator"
      ],
      [
        "Im",
        "age"
      ],
      [
        "n",
        "er"
      ],
      [
        "St",
        "art"
      ],
      [
        "A",
        "ll"
      ],
      [
        "l",
        "et"
      ],
      [
        "inter",
        "nal"
      ],
      [
        "sup",
        "port"
      ],
      [
        "Connect",
        "ion"
      ],
      [
        "S",
        "C"
      ],
      [
        "e",
        "mail"
      ],
      [
        "ver",
        "se"
      ],
      [
        "file",
        "_"
      ],
      [
        "names",
        "pace"
      ],
      [
        "again",
        "st"
      ],
      [
        "necess",
        "ary"
      ],
      [
        "al",
        "gorith"
      ],
      [
        "om",
        "et"
      ],
      [
        "does",
        "n"
      ],
      [
        "mount",
        "_point"
      ],
      [
        "expect",
        "ed"
      ],
      [
        "c",
        "ro"
      ],
      [
        "min",
        "imum"
      ],
      [
        "chang",
        "ed"
      ],
      [
        "c",
        "r"
      ],
      [
        "con",
        "str"
      ],
      [
        "des",
        "ired"
      ],
      [
        "rout",
        "e"
      ],
      [
        "v",
        "ar"
      ],
      [
        "par",
        "sers"
      ],
      [
        "Ret",
        "rieve"
      ],
      [
        "T",
        "E"
      ],
      [
        "T",
        "ra"
      ],
      [
        "ex",
        "clu"
      ],
      [
        "me",
        "ans"
      ],
      [
        "we",
        "ll"
      ],
      [
        "bu",
        "ffer"
      ],
      [
        "proto",
        "col"
      ],
      [
        "\"",
        "."
      ],
      [
        "O",
        "r"
      ],
      [
        "f",
        "it"
      ],
      [
        "as",
        "on"
      ],
      [
        "wh",
        "at"
      ],
      [
        "pl",
        "ac"
      ],
      [
        "num",
        "bers"
      ],
      [
        "add",
        "_"
      ],
      [
        "need",
        "ed"
      ],
      [
        "B",
        "ase"
      ],
      [
        "`",
        ":"
      ],
      [
        "v",
        "ate"
      ],
      [
        "us",
        "age"
      ],
      [
        "iv",
        "es"
      ],
      [
        "inter",
        "val"
      ],
      [
        "lay",
        "er"
      ],
      [
        "b",
        "l"
      ],
      [
        "ro",
        "le"
      ],
      [
        "fact",
        "ory"
      ],
      [
        "vol",
        "ume"
      ],
      [
        "Writ",
        "e"
      ],
      [
        "prof",
        "ile"
      ],
      [
        "4",
        "0"
      ],
      [
        "s",
        "lot"
      ],
      [
        "s",
        "amples"
      ],
      [
        "ed",
        "ge"
      ],
      [
        "p",
        "int"
      ],
      [
        "se",
        "q"
      ],
      [
        "se",
        "gment"
      ],
      [
        "ci",
        "p"
      ],
      [
        "work",
        "flow"
      ],
      [
        "pri",
        "or"
      ],
      [
        "P",
        "re"
      ],
      [
        "S",
        "yn"
      ],
      [
        "fa",
        "ces"
      ],
      [
        "process",
        "ing"
      ],
      [
        "ta",
        "kes"
      ],
      [
        "ter",
        "m"
      ],
      [
        "pres",
        "ents"
      ],
      [
        "St",
        "at"
      ],
      [
        "Pro",
        "per"
      ],
      [
        "an",
        "other"
      ],
      [
        "clo",
        "se"
      ],
      [
        ",",
        ","
      ],
      [
        "_",
        "value"
      ],
      [
        "Ret",
        "rieves"
      ],
      [
        "del",
        "ete"
      ],
      [
        "man",
        "ager"
      ],
      [
        "c",
        "ard"
      ],
      [
        "e",
        "g"
      ],
      [
        "re",
        "al"
      ],
      [
        "ne",
        "igh"
      ],
      [
        "part",
        "ition"
      ],
      [
        "5",
        "0"
      ],
      [
        "A",
        "N"
      ],
      [
        "A",
        "c"
      ],
      [
        "O",
        "S"
      ],
      [
        "S",
        "to"
      ],
      [
        "d",
        "one"
      ],
      [
        "co",
        "un"
      ],
      [
        "un",
        "its"
      ],
      [
        "me",
        "as"
      ],
      [
        "use",
        "ful"
      ],
      [
        "writ",
        "ten"
      ],
      [
        "depend",
        "encies"
      ],
      [
        "chang",
        "es"
      ],
      [
        "thresh",
        "old"
      ],
      [
        "C",
        "ur"
      ],
      [
        "b",
        "ol"
      ],
      [
        "c",
        "s"
      ],
      [
        "e",
        "ffici"
      ],
      [
        "p",
        "lic"
      ],
      [
        "v",
        "ing"
      ],
      [
        "st",
        "ack"
      ],
      [
        "current",
        "ly"
      ],
      [
        "sim",
        "ul"
      ],
      [
        "cond",
        "ition"
      ],
      [
        "A",
        "tt"
      ],
      [
        "c",
        "p"
      ],
      [
        "w",
        "w"
      ],
      [
        "er",
        "ial"
      ],
      [
        "en",
        "ces"
      ],
      [
        "execut",
        "ion"
      ],
      [
        "A",
        "ST"
      ],
      [
        "_",
        "to_"
      ],
      [
        "t",
        "ango"
      ],
      [
        "array",
        "s"
      ],
      [
        "automat",
        "ically"
      ],
      [
        "A",
        "ccess"
      ],
      [
        "x",
        "t"
      ],
      [
        "in",
        "str"
      ],
      [
        "inter",
        "actions"
      ],
      [
        "cate",
        "gory"
      ],
      [
        "G",
        "E"
      ],
      [
        "\\",
        "\\"
      ],
      [
        "al",
        "ways"
      ],
      [
        "ab",
        "ility"
      ],
      [
        "wh",
        "ose"
      ],
      [
        "ne",
        "g"
      ],
      [
        "calcul",
        "ated"
      ],
      [
        "deter",
        "min"
      ],
      [
        "sty",
        "le"
      ],
      [
        "A",
        "A"
      ],
      [
        "T",
        "O"
      ],
      [
        "b",
        "ro"
      ],
      [
        "f",
        "r"
      ],
      [
        "l",
        "ate"
      ],
      [
        "s",
        "n"
      ],
      [
        "for",
        "ce"
      ],
      [
        "po",
        "wer"
      ],
      [
        "ho",
        "ok"
      ],
      [
        "tup",
        "les"
      ],
      [
        "part",
        "ic"
      ],
      [
        "ker",
        "nel"
      ],
      [
        "algorith",
        "m"
      ],
      [
        "in",
        "s"
      ],
      [
        "re",
        "presents"
      ],
      [
        "et",
        "c"
      ],
      [
        "ate",
        "ly"
      ],
      [
        "ci",
        "al"
      ],
      [
        "Con",
        "struct"
      ],
      [
        "tem",
        "por"
      ],
      [
        "ens",
        "ity"
      ],
      [
        "der",
        "iv"
      ],
      [
        "appro",
        "pri"
      ],
      [
        "I",
        "tem"
      ],
      [
        "----------",
        "-"
      ],
      [
        "coordin",
        "ate"
      ],
      [
        "hel",
        "p"
      ],
      [
        "Medi",
        "ator"
      ],
      [
        "A",
        "L"
      ],
      [
        "M",
        "ap"
      ],
      [
        "W",
        "indow"
      ],
      [
        "b",
        "and"
      ],
      [
        "en",
        "e"
      ],
      [
        "be",
        "cause"
      ],
      [
        "list",
        "s"
      ],
      [
        "indi",
        "cate"
      ],
      [
        "fol",
        "der"
      ],
      [
        "glob",
        "al"
      ],
      [
        "s",
        "ince"
      ],
      [
        "ch",
        "ron"
      ],
      [
        "call",
        "ing"
      ],
      [
        "pri",
        "vate"
      ],
      [
        "P",
        "C"
      ],
      [
        "ch",
        "o"
      ],
      [
        "--------",
        "-"
      ],
      [
        "In",
        "ter"
      ],
      [
        "target",
        "s"
      ],
      [
        "ta",
        "ke"
      ],
      [
        "A",
        "D"
      ],
      [
        "g",
        "on"
      ],
      [
        "st",
        "er"
      ],
      [
        "work",
        "space"
      ],
      [
        "ali",
        "as"
      ],
      [
        "2",
        "4"
      ],
      [
        "P",
        "ay"
      ],
      [
        "a",
        "kes"
      ],
      [
        "ag",
        "g"
      ],
      [
        "po",
        "t"
      ],
      [
        "inter",
        "pol"
      ],
      [
        "partic",
        "ular"
      ],
      [
        "m",
        "d"
      ],
      [
        "r",
        "t"
      ],
      [
        "x",
        "m"
      ],
      [
        "res",
        "pect"
      ],
      [
        "so",
        "cket"
      ],
      [
        "del",
        "et"
      ],
      [
        "art",
        "ifact"
      ],
      [
        "D",
        "eter"
      ],
      [
        "M",
        "ake"
      ],
      [
        "P",
        "ass"
      ],
      [
        "S",
        "up"
      ],
      [
        "x",
        "array"
      ],
      [
        "in",
        "_"
      ],
      [
        "model",
        "s"
      ],
      [
        "sign",
        "ed"
      ],
      [
        "receiv",
        "ed"
      ],
      [
        "'",
        "}"
      ],
      [
        "P",
        "age"
      ],
      [
        "s",
        "plit"
      ],
      [
        "inter",
        "pret"
      ],
      [
        "tag",
        "s"
      ],
      [
        "parser",
        "_"
      ],
      [
        "charact",
        "er"
      ],
      [
        "H",
        "e"
      ],
      [
        "ret",
        "rieve"
      ],
      [
        "In",
        "it"
      ],
      [
        "For",
        "mat"
      ],
      [
        "ched",
        "ul"
      ],
      [
        "O",
        "ut"
      ],
      [
        "g",
        "it"
      ],
      [
        "m",
        "ut"
      ],
      [
        "ro",
        "ll"
      ],
      [
        "ex",
        "port"
      ],
      [
        "und",
        "le"
      ],
      [
        "ste",
        "ps"
      ],
      [
        "Cl",
        "ass"
      ],
      [
        "1",
        "4"
      ],
      [
        "q",
        "l"
      ],
      [
        "ed",
        "ges"
      ],
      [
        "up",
        "lic"
      ],
      [
        "Parser",
        "Mediator"
      ],
      [
        "C",
        "L"
      ],
      [
        "T",
        "ok"
      ],
      [
        "i",
        "a"
      ],
      [
        "ce",
        "l"
      ],
      [
        "comm",
        "on"
      ],
      [
        "pub",
        "lish"
      ],
      [
        "select",
        "ed"
      ],
      [
        "war",
        "ning"
      ],
      [
        "decor",
        "ator"
      ],
      [
        "p",
        "per"
      ],
      [
        "se",
        "m"
      ],
      [
        "pro",
        "gram"
      ],
      [
        "comm",
        "it"
      ],
      [
        "Di",
        "ction"
      ],
      [
        "curs",
        "or"
      ],
      [
        "dimension",
        "al"
      ],
      [
        "Per",
        "form"
      ],
      [
        "1",
        "3"
      ],
      [
        "N",
        "ew"
      ],
      [
        "or",
        "ies"
      ],
      [
        "Diction",
        "ary"
      ],
      [
        "1",
        "8"
      ],
      [
        "I",
        "ter"
      ],
      [
        "_",
        "dir"
      ],
      [
        "m",
        "and"
      ],
      [
        "on",
        "ce"
      ],
      [
        "execut",
        "e"
      ],
      [
        "F",
        "l"
      ],
      [
        "M",
        "e"
      ],
      [
        "h",
        "ist"
      ],
      [
        "us",
        "h"
      ],
      [
        "com",
        "p"
      ],
      [
        "com",
        "pat"
      ],
      [
        "pos",
        "it"
      ],
      [
        "C",
        "an"
      ],
      [
        "_",
        "number"
      ],
      [
        "m",
        "u"
      ],
      [
        "z",
        "a"
      ],
      [
        "ce",
        "ed"
      ],
      [
        "um",
        "p"
      ],
      [
        "stat",
        "s"
      ],
      [
        "RF",
        "C"
      ],
      [
        "dep",
        "th"
      ],
      [
        "no",
        "w"
      ],
      [
        "An",
        "y"
      ],
      [
        "cert",
        "ain"
      ],
      [
        "omet",
        "ry"
      ],
      [
        "c",
        "ar"
      ],
      [
        "x",
        "y"
      ],
      [
        "pro",
        "b"
      ],
      [
        "cl",
        "a"
      ],
      [
        "bu",
        "g"
      ],
      [
        "ca",
        "st"
      ],
      [
        "mem",
        "bers"
      ],
      [
        "sym",
        "bol"
      ],
      [
        "itu",
        "de"
      ],
      [
        "appropri",
        "ate"
      ],
      [
        "Pay",
        "load"
      ],
      [
        "C",
        "lo"
      ],
      [
        "c",
        "ap"
      ],
      [
        "t",
        "xt"
      ],
      [
        "re",
        "ason"
      ],
      [
        "er",
        "ies"
      ],
      [
        "ul",
        "ate"
      ],
      [
        "parser_",
        "mediator"
      ],
      [
        "M",
        "P"
      ],
      [
        "e",
        "valu"
      ],
      [
        "f",
        "uture"
      ],
      [
        "i",
        "er"
      ],
      [
        "s",
        "pa"
      ],
      [
        "inclu",
        "ded"
      ],
      [
        "Convert",
        "s"
      ],
      [
        "sco",
        "pe"
      ],
      [
        "2",
        "2"
      ],
      [
        "D",
        "F"
      ],
      [
        "--------",
        "----"
      ],
      [
        "ev",
        "en"
      ],
      [
        "sy",
        "s"
      ],
      [
        "vari",
        "ants"
      ],
      [
        "Type",
        "Error"
      ],
      [
        "medi",
        "ates"
      ],
      [
        "igno",
        "red"
      ],
      [
        "S",
        "h"
      ],
      [
        "_",
        "f"
      ],
      [
        "d",
        "uring"
      ],
      [
        "m",
        "any"
      ],
      [
        "add",
        "ing"
      ],
      [
        "fe",
        "ature"
      ],
      [
        "sco",
        "re"
      ],
      [
        "]",
        "],"
      ],
      [
        "g",
        "ra"
      ],
      [
        "in",
        "v"
      ],
      [
        "we",
        "re"
      ],
      [
        "fe",
        "atures"
      ],
      [
        "Extra",
        "ct"
      ],
      [
        "E",
        "m"
      ],
      [
        "T",
        "able"
      ],
      [
        "r",
        "ate"
      ],
      [
        "s",
        "r"
      ],
      [
        "en",
        "abled"
      ],
      [
        "iv",
        "ity"
      ],
      [
        "ke",
        "ep"
      ],
      [
        "sign",
        "al"
      ],
      [
        "day",
        "s"
      ],
      [
        "Specifi",
        "es"
      ],
      [
        "b",
        "i"
      ],
      [
        "o",
        "unt"
      ],
      [
        "el",
        "se"
      ],
      [
        "ph",
        "one"
      ],
      [
        "tri",
        "g"
      ],
      [
        "det",
        "ect"
      ],
      [
        "neigh",
        "b"
      ],
      [
        "Att",
        "ribut"
      ],
      [
        "T",
        "arget"
      ],
      [
        "_",
        "url"
      ],
      [
        "`",
        "):"
      ],
      [
        "d",
        "uplic"
      ],
      [
        "s",
        "li"
      ],
      [
        "u",
        "ction"
      ],
      [
        "le",
        "ader"
      ],
      [
        "ci",
        "pher"
      ],
      [
        "result",
        "ing"
      ],
      [
        "pr",
        "im"
      ],
      [
        "ff",
        "t"
      ],
      [
        "start",
        "ing"
      ],
      [
        "clo",
        "sed"
      ],
      [
        "E",
        "lement"
      ],
      [
        "am",
        "ount"
      ],
      [
        "us",
        "ers"
      ],
      [
        "oc",
        "cur"
      ],
      [
        "implement",
        "ation"
      ],
      [
        "Net",
        "work"
      ],
      [
        "N",
        "O"
      ],
      [
        "whi",
        "le"
      ],
      [
        "command",
        "s"
      ],
      [
        "Add",
        "ress"
      ],
      [
        "obser",
        "v"
      ],
      [
        "Window",
        "s"
      ],
      [
        "z",
        "one"
      ],
      [
        "tr",
        "an"
      ],
      [
        "trans",
        "l"
      ],
      [
        "Check",
        "s"
      ],
      [
        "document",
        "ation"
      ],
      [
        "a",
        "w"
      ],
      [
        "a",
        "io"
      ],
      [
        "ch",
        "unk"
      ],
      [
        "pro",
        "ble"
      ],
      [
        "ifi",
        "cate"
      ],
      [
        "count",
        "s"
      ],
      [
        "log",
        "ging"
      ],
      [
        "bu",
        "il"
      ],
      [
        "Lo",
        "g"
      ],
      [
        "sum",
        "m"
      ],
      [
        "l",
        "arg"
      ],
      [
        "s",
        "ol"
      ],
      [
        "u",
        "es"
      ],
      [
        "is",
        "ion"
      ],
      [
        "po",
        "ly"
      ],
      [
        "from",
        "_"
      ],
      [
        "ver",
        "age"
      ],
      [
        "per",
        "cent"
      ],
      [
        "--------",
        "------"
      ],
      [
        "St",
        "ate"
      ],
      [
        "inclu",
        "ding"
      ],
      [
        "olut",
        "ion"
      ],
      [
        "========",
        "========"
      ],
      [
        "radi",
        "us"
      ],
      [
        "alle",
        "l"
      ],
      [
        "a",
        "ve"
      ],
      [
        "d",
        "type"
      ],
      [
        "s",
        "ur"
      ],
      [
        "y",
        "ear"
      ],
      [
        "co",
        "ok"
      ],
      [
        "Re",
        "qui"
      ],
      [
        "permission",
        "s"
      ],
      [
        "fact",
        "or"
      ],
      [
        "indic",
        "ates"
      ],
      [
        "cry",
        "pt"
      ],
      [
        "Reg",
        "ist"
      ],
      [
        "ran",
        "ch"
      ],
      [
        "mon",
        "th"
      ],
      [
        "Dat",
        "aset"
      ],
      [
        "Des",
        "cri"
      ],
      [
        "I",
        "C"
      ],
      [
        "j",
        "ar"
      ],
      [
        "le",
        "ast"
      ],
      [
        "con",
        "stant"
      ],
      [
        "low",
        "er"
      ],
      [
        "bu",
        "cket"
      ],
      [
        "iter",
        "ator"
      ],
      [
        "Ser",
        "ial"
      ],
      [
        "fer",
        "red"
      ],
      [
        "opt",
        "im"
      ],
      [
        "0",
        "1"
      ],
      [
        "H",
        "E"
      ],
      [
        "st",
        "ud"
      ],
      [
        "bo",
        "t"
      ],
      [
        "assign",
        "ed"
      ],
      [
        "S",
        "QL"
      ],
      [
        "T",
        "_"
      ],
      [
        "p",
        "ers"
      ],
      [
        "lo",
        "c"
      ],
      [
        "sh",
        "ort"
      ],
      [
        "HT",
        "ML"
      ],
      [
        "fail",
        "s"
      ],
      [
        "3",
        "3"
      ],
      [
        "G",
        "roup"
      ],
      [
        "c",
        "er"
      ],
      [
        "re",
        "ply"
      ],
      [
        "com",
        "bin"
      ],
      [
        "Cont",
        "ent"
      ],
      [
        "vo",
        "ice"
      ],
      [
        "M",
        "ax"
      ],
      [
        "on",
        "t"
      ],
      [
        "act",
        "ual"
      ],
      [
        "av",
        "a"
      ],
      [
        "Pro",
        "du"
      ],
      [
        "Fil",
        "ter"
      ],
      [
        "credential",
        "s"
      ],
      [
        "abo",
        "ve"
      ],
      [
        "chron",
        "ous"
      ],
      [
        "M",
        "C"
      ],
      [
        "R",
        "o"
      ],
      [
        "p",
        "ants"
      ],
      [
        "u",
        "id"
      ],
      [
        "as",
        "h"
      ],
      [
        "ifi",
        "er"
      ],
      [
        "appli",
        "ed"
      ],
      [
        "comput",
        "e"
      ],
      [
        "sort",
        "ed"
      ],
      [
        "dest",
        "ination"
      ],
      [
        "meas",
        "ure"
      ],
      [
        "Init",
        "ial"
      ],
      [
        "5",
        "8"
      ],
      [
        "E",
        "ach"
      ],
      [
        "re",
        "co"
      ],
      [
        "is",
        "_"
      ],
      [
        "de",
        "co"
      ],
      [
        "depend",
        "ing"
      ],
      [
        "Hand",
        "le"
      ],
      [
        "xm",
        "pp"
      ],
      [
        "/",
        "{"
      ],
      [
        "1",
        "7"
      ],
      [
        "G",
        "o"
      ],
      [
        "P",
        "ub"
      ],
      [
        "b",
        "ranch"
      ],
      [
        "n",
        "ess"
      ],
      [
        "o",
        "id"
      ],
      [
        "in",
        "c"
      ],
      [
        "ex",
        "pi"
      ],
      [
        "spe",
        "cial"
      ],
      [
        "Valid",
        "ate"
      ],
      [
        "Del",
        "ete"
      ],
      [
        "constr",
        "a"
      ],
      [
        "M",
        "an"
      ],
      [
        "R",
        "PC"
      ],
      [
        "W",
        "ra"
      ],
      [
        "f",
        "alse"
      ],
      [
        "t",
        "ain"
      ],
      [
        "De",
        "vice"
      ],
      [
        "version",
        "s"
      ],
      [
        "bound",
        "s"
      ],
      [
        "Di",
        "ct"
      ],
      [
        "vect",
        "ors"
      ],
      [
        "TI",
        "ON"
      ],
      [
        "aio",
        "xmpp"
      ],
      [
        "I",
        "I"
      ],
      [
        "[",
        "-"
      ],
      [
        "es",
        "e"
      ],
      [
        "com",
        "pa"
      ],
      [
        "com",
        "pres"
      ],
      [
        "vert",
        "ices"
      ],
      [
        "pixel",
        "s"
      ],
      [
        "agg",
        "reg"
      ],
      [
        "F",
        "F"
      ],
      [
        "be",
        "st"
      ],
      [
        "new",
        "_"
      ],
      [
        "diction",
        "aries"
      ],
      [
        "St",
        "ream"
      ],
      [
        "da",
        "ily"
      ],
      [
        "g",
        "ress"
      ],
      [
        "n",
        "s"
      ],
      [
        "x",
        "ml"
      ],
      [
        "of",
        "_"
      ],
      [
        "le",
        "g"
      ],
      [
        "de",
        "cl"
      ],
      [
        "di",
        "st"
      ],
      [
        "ad",
        "apt"
      ],
      [
        "ly",
        "ph"
      ],
      [
        "ap",
        "sho"
      ],
      [
        "fil",
        "ters"
      ],
      [
        "Spe",
        "c"
      ],
      [
        "A",
        "M"
      ],
      [
        "S",
        "I"
      ],
      [
        "S",
        "O"
      ],
      [
        "ma",
        "de"
      ],
      [
        "word",
        "s"
      ],
      [
        "An",
        "alysis"
      ],
      [
        "access",
        "_token"
      ],
      [
        "auth",
        "or"
      ],
      [
        "indic",
        "ating"
      ],
      [
        "W",
        "ill"
      ],
      [
        "st",
        "ates"
      ],
      [
        "de",
        "pre"
      ],
      [
        "cl",
        "s"
      ],
      [
        "set",
        "up"
      ],
      [
        "config",
        "ured"
      ],
      [
        "sequ",
        "ences"
      ],
      [
        "regist",
        "er"
      ],
      [
        "obser",
        "ved"
      ],
      [
        "Attribut",
        "e"
      ],
      [
        "H",
        "el"
      ],
      [
        "e",
        "k"
      ],
      [
        "k",
        "ind"
      ],
      [
        "exception",
        "s"
      ],
      [
        "PO",
        "ST"
      ],
      [
        "F",
        "ield"
      ],
      [
        "s",
        "l"
      ],
      [
        "de",
        "bug"
      ],
      [
        "valid",
        "ator"
      ],
      [
        "cent",
        "er"
      ],
      [
        "wid",
        "get"
      ],
      [
        "plan",
        "e"
      ],
      [
        "stud",
        "ent"
      ],
      [
        "*",
        "."
      ],
      [
        "c",
        "ached"
      ],
      [
        "line",
        "ar"
      ],
      [
        "over",
        "rid"
      ],
      [
        "plot",
        "lib"
      ],
      [
        "mod",
        "ules"
      ],
      [
        "plic",
        "it"
      ],
      [
        "g",
        "ers"
      ],
      [
        "o",
        "u"
      ],
      [
        "s",
        "w"
      ],
      [
        "dat",
        "es"
      ],
      [
        "per",
        "im"
      ],
      [
        "ext",
        "er"
      ],
      [
        "In",
        "fo"
      ],
      [
        "num",
        "er"
      ],
      [
        "ge",
        "ometry"
      ],
      [
        "check",
        "s"
      ],
      [
        "est",
        "im"
      ],
      [
        "Y",
        "ields"
      ],
      [
        "a",
        "_"
      ],
      [
        "b",
        "undle"
      ],
      [
        "c",
        "ing"
      ],
      [
        "g",
        "_"
      ],
      [
        "g",
        "in"
      ],
      [
        "k",
        "ing"
      ],
      [
        "end",
        "ing"
      ],
      [
        "stat",
        "istics"
      ],
      [
        "Str",
        "uct"
      ],
      [
        "stant",
        "i"
      ],
      [
        "construct",
        "or"
      ],
      [
        "redu",
        "ce"
      ],
      [
        "2",
        "D"
      ],
      [
        "A",
        "t"
      ],
      [
        "e",
        "qui"
      ],
      [
        "y",
        "stem"
      ],
      [
        "re",
        "curs"
      ],
      [
        "co",
        "ur"
      ],
      [
        "ch",
        "ain"
      ],
      [
        "im",
        "medi"
      ],
      [
        "return",
        "ing"
      ],
      [
        "Remo",
        "ves"
      ],
      [
        "solut",
        "ion"
      ],
      [
        "tempor",
        "ary"
      ],
      [
        "3",
        "4"
      ],
      [
        "D",
        "B"
      ],
      [
        "d",
        "ensity"
      ],
      [
        "en",
        "um"
      ],
      [
        "up",
        "load"
      ],
      [
        "task",
        "s"
      ],
      [
        "UR",
        "I"
      ],
      [
        "Tok",
        "en"
      ],
      [
        "Y",
        "ou"
      ],
      [
        "_",
        "code"
      ],
      [
        "s",
        "id"
      ],
      [
        "in",
        "cre"
      ],
      [
        "be",
        "low"
      ],
      [
        "ly",
        "ing"
      ],
      [
        "ifi",
        "ed"
      ],
      [
        "ID",
        "s"
      ],
      [
        "state",
        "ment"
      ],
      [
        "rout",
        "er"
      ],
      [
        "updat",
        "es"
      ],
      [
        "D",
        "ev"
      ],
      [
        "P",
        "N"
      ],
      [
        "W",
        "S"
      ],
      [
        "a",
        "z"
      ],
      [
        "v",
        "en"
      ],
      [
        "up",
        "per"
      ],
      [
        "class",
        "path"
      ],
      [
        "ampl",
        "ing"
      ],
      [
        "Descri",
        "ption"
      ],
      [
        "P",
        "UT"
      ],
      [
        "h",
        "y"
      ],
      [
        "ur",
        "i"
      ],
      [
        "li",
        "m"
      ],
      [
        "ri",
        "de"
      ],
      [
        "ter",
        "min"
      ],
      [
        "valid",
        "ation"
      ],
      [
        "_s",
        "amples"
      ],
      [
        "allow",
        "s"
      ],
      [
        "Sto",
        "re"
      ],
      [
        "effici",
        "ent"
      ],
      [
        "L",
        "ine"
      ],
      [
        "t",
        "re"
      ],
      [
        "t",
        "ax"
      ],
      [
        "re",
        "posit"
      ],
      [
        "li",
        "ght"
      ],
      [
        "di",
        "o"
      ],
      [
        "not",
        "ification"
      ],
      [
        "rel",
        "ated"
      ],
      [
        "Ser",
        "ver"
      ],
      [
        "extract",
        "ed"
      ],
      [
        "late",
        "st"
      ],
      [
        "leader",
        "board"
      ],
      [
        "S",
        "A"
      ],
      [
        "d",
        "raw"
      ],
      [
        "on",
        "_"
      ],
      [
        "er",
        "ved"
      ],
      [
        "par",
        "sing"
      ],
      [
        "age",
        "ment"
      ],
      [
        "fin",
        "al"
      ],
      [
        "block",
        "s"
      ],
      [
        "FI",
        "LE"
      ],
      [
        "M",
        "et"
      ],
      [
        "r",
        "at"
      ],
      [
        "val",
        "ent"
      ],
      [
        "qu",
        "ot"
      ],
      [
        "dict",
        "s"
      ],
      [
        "direct",
        "ories"
      ],
      [
        "input",
        "s"
      ],
      [
        "arch",
        "ive"
      ],
      [
        "link",
        "s"
      ],
      [
        "No",
        "de"
      ],
      [
        "cons",
        "ist"
      ],
      [
        "sn",
        "apsho"
      ],
      [
        "'",
        ")."
      ],
      [
        "9",
        "5"
      ],
      [
        "D",
        "O"
      ],
      [
        "H",
        "MC"
      ],
      [
        "n",
        "one"
      ],
      [
        "pl",
        "at"
      ],
      [
        "ne",
        "sted"
      ],
      [
        "mat",
        "plotlib"
      ],
      [
        "trans",
        "ition"
      ],
      [
        "Option",
        "s"
      ],
      [
        "Gener",
        "ates"
      ],
      [
        "M",
        "ust"
      ],
      [
        "Q",
        "ue"
      ],
      [
        "d",
        "ri"
      ],
      [
        "en",
        "code"
      ],
      [
        "num",
        "_"
      ],
      [
        "sub",
        "class"
      ],
      [
        "app",
        "ing"
      ],
      [
        "Se",
        "arch"
      ],
      [
        "location",
        "s"
      ],
      [
        "success",
        "fully"
      ],
      [
        "definition",
        "s"
      ],
      [
        "C",
        "O"
      ],
      [
        "N",
        "ormal"
      ],
      [
        "_",
        "time"
      ],
      [
        "c",
        "am"
      ],
      [
        "ass",
        "et"
      ],
      [
        "ang",
        "les"
      ],
      [
        "Tr",
        "imesh"
      ],
      [
        "connection",
        "s"
      ],
      [
        "sav",
        "ed"
      ],
      [
        "Produ",
        "ces"
      ],
      [
        "=",
        "\""
      ],
      [
        "_",
        "of_"
      ],
      [
        "e",
        "qu"
      ],
      [
        "or",
        "_"
      ],
      [
        "cre",
        "ates"
      ],
      [
        "cert",
        "ificate"
      ],
      [
        "Po",
        "int"
      ],
      [
        "h",
        "um"
      ],
      [
        "v",
        "_"
      ],
      [
        "ut",
        "il"
      ],
      [
        "be",
        "ha"
      ],
      [
        "ex",
        "act"
      ],
      [
        "all",
        "et"
      ],
      [
        "so",
        "urces"
      ],
      [
        "00",
        "00"
      ],
      [
        "over",
        "write"
      ],
      [
        "stat",
        "ic"
      ],
      [
        "doc",
        "s"
      ],
      [
        "custom",
        "er"
      ],
      [
        "down",
        "load"
      ],
      [
        "perim",
        "ent"
      ],
      [
        "S",
        "ession"
      ],
      [
        "r",
        "ation"
      ],
      [
        "con",
        "side"
      ],
      [
        "ex",
        "pr"
      ],
      [
        "vert",
        "ex"
      ],
      [
        "dis",
        "k"
      ],
      [
        "dif",
        "y"
      ],
      [
        "complet",
        "ion"
      ],
      [
        "crit",
        "er"
      ],
      [
        "modifi",
        "ed"
      ],
      [
        "simul",
        "ated"
      ],
      [
        "conside",
        "red"
      ],
      [
        "O",
        "ne"
      ],
      [
        "P",
        "os"
      ],
      [
        "on",
        "es"
      ],
      [
        "ex",
        "it"
      ],
      [
        "read",
        "er"
      ],
      [
        "fail",
        "ed"
      ],
      [
        "under",
        "lying"
      ],
      [
        "vis",
        "ion"
      ],
      [
        "ib",
        "ility"
      ],
      [
        "deter",
        "mine"
      ],
      [
        "igno",
        "re"
      ],
      [
        "comp",
        "il"
      ],
      [
        "z",
        "ip"
      ],
      [
        "or",
        "dered"
      ],
      [
        "ret",
        "riev"
      ],
      [
        "il",
        "ar"
      ],
      [
        ":`",
        "."
      ],
      [
        "execut",
        "ed"
      ],
      [
        "syn",
        "c"
      ],
      [
        "serial",
        "ized"
      ],
      [
        "annot",
        "ation"
      ],
      [
        "fr",
        "ames"
      ],
      [
        "N",
        "T"
      ],
      [
        "P",
        "i"
      ],
      [
        "s",
        "can"
      ],
      [
        "w",
        "ard"
      ],
      [
        "x",
        "_"
      ],
      [
        "re",
        "plac"
      ],
      [
        "pro",
        "gress"
      ],
      [
        "In",
        "valid"
      ],
      [
        "__",
        "__"
      ],
      [
        "Id",
        "ent"
      ],
      [
        "A",
        "b"
      ],
      [
        "S",
        "ign"
      ],
      [
        "T",
        "akes"
      ],
      [
        "f",
        "all"
      ],
      [
        "s",
        "ql"
      ],
      [
        "{",
        "\\"
      ],
      [
        "st",
        "it"
      ],
      [
        "am",
        "l"
      ],
      [
        "str",
        "ate"
      ],
      [
        "ad",
        "j"
      ],
      [
        "tr",
        "imesh"
      ],
      [
        "Th",
        "ese"
      ],
      [
        "we",
        "ek"
      ],
      [
        "pat",
        "ch"
      ],
      [
        "need",
        "s"
      ],
      [
        "calcul",
        "ate"
      ],
      [
        "Cur",
        "rent"
      ],
      [
        "D",
        "NA"
      ],
      [
        "T",
        "ext"
      ],
      [
        "j",
        "id"
      ],
      [
        "k",
        "g"
      ],
      [
        "r",
        "p"
      ],
      [
        "ret",
        "ry"
      ],
      [
        "ang",
        "es"
      ],
      [
        "des",
        "ign"
      ],
      [
        "spec",
        "im"
      ],
      [
        "job",
        "s"
      ],
      [
        "perform",
        "ed"
      ],
      [
        "poly",
        "gon"
      ],
      [
        "B",
        "lock"
      ],
      [
        "l",
        "er"
      ],
      [
        "st",
        "u"
      ],
      [
        "am",
        "b"
      ],
      [
        "he",
        "x"
      ],
      [
        "ch",
        "at"
      ],
      [
        "convert",
        "ed"
      ],
      [
        "plugin",
        "s"
      ],
      [
        "dec",
        "imal"
      ],
      [
        "delet",
        "ed"
      ],
      [
        "M",
        "V"
      ],
      [
        "_",
        "dict"
      ],
      [
        "c",
        "ision"
      ],
      [
        "s",
        "chedul"
      ],
      [
        "out",
        "ine"
      ],
      [
        "col",
        "ors"
      ],
      [
        "')",
        ","
      ],
      [
        "Ch",
        "annel"
      ],
      [
        "Time",
        "out"
      ],
      [
        "Col",
        "or"
      ],
      [
        "reposit",
        "ory"
      ],
      [
        "D",
        "ate"
      ],
      [
        "O",
        "U"
      ],
      [
        "O",
        "ver"
      ],
      [
        "V",
        "ari"
      ],
      [
        "re",
        "actions"
      ],
      [
        "en",
        "o"
      ],
      [
        "it",
        "ch"
      ],
      [
        "ex",
        "periment"
      ],
      [
        "work",
        "ing"
      ],
      [
        "scal",
        "ar"
      ],
      [
        "ib",
        "is"
      ],
      [
        "weight",
        "s"
      ],
      [
        "Sup",
        "ported"
      ],
      [
        "proble",
        "m"
      ],
      [
        "Hel",
        "per"
      ],
      [
        "immedi",
        "ately"
      ],
      [
        "V",
        "ers"
      ],
      [
        "_",
        "group"
      ],
      [
        "y",
        "et"
      ],
      [
        "re",
        "ferences"
      ],
      [
        "com",
        "ment"
      ],
      [
        "fig",
        "ure"
      ],
      [
        "sim",
        "ple"
      ],
      [
        "api",
        "_"
      ],
      [
        "she",
        "et"
      ],
      [
        "jo",
        "in"
      ],
      [
        "neg",
        "ative"
      ],
      [
        "stit",
        "ut"
      ],
      [
        "a",
        "a"
      ],
      [
        "m",
        "p"
      ],
      [
        "s",
        "ci"
      ],
      [
        "ap",
        "pe"
      ],
      [
        "fe",
        "ed"
      ],
      [
        "pre",
        "di"
      ],
      [
        "process",
        "ed"
      ],
      [
        "ip",
        "_"
      ],
      [
        "oper",
        "ations"
      ],
      [
        "allow",
        "_"
      ],
      [
        "depend",
        "ency"
      ],
      [
        "normal",
        "ized"
      ],
      [
        "cle",
        "an"
      ],
      [
        "ran",
        "k"
      ],
      [
        "flag",
        "s"
      ],
      [
        "M",
        "ult"
      ],
      [
        "_",
        "names"
      ],
      [
        "d",
        "ro"
      ],
      [
        "g",
        "radi"
      ],
      [
        "p",
        "ag"
      ],
      [
        "}",
        "}"
      ],
      [
        "ar",
        "ound"
      ],
      [
        "po",
        "pt"
      ],
      [
        "Re",
        "ference"
      ],
      [
        "work",
        "s"
      ],
      [
        "Parse",
        "Error"
      ],
      [
        "equi",
        "valent"
      ],
      [
        "plat",
        "form"
      ]
    ]
  }
}